node {
  name: "bidirectional_1_input"
  op: "Placeholder"
  attr {
    key: "dtype"
    value {
      type: DT_FLOAT
    }
  }
  attr {
    key: "shape"
    value {
      shape {
        dim {
          size: -1
        }
        dim {
          size: 300
        }
        dim {
          size: 1
        }
      }
    }
  }
}
node {
  name: "bidirectional_1/forward_lstm_1/random_normal/shape"
  op: "Const"
  attr {
    key: "dtype"
    value {
      type: DT_INT32
    }
  }
  attr {
    key: "value"
    value {
      tensor {
        dtype: DT_INT32
        tensor_shape {
          dim {
            size: 2
          }
        }
        tensor_content: "\001\000\000\000\240\000\000\000"
      }
    }
  }
}
node {
  name: "bidirectional_1/forward_lstm_1/random_normal/mean"
  op: "Const"
  attr {
    key: "dtype"
    value {
      type: DT_FLOAT
    }
  }
  attr {
    key: "value"
    value {
      tensor {
        dtype: DT_FLOAT
        tensor_shape {
        }
        float_val: 0.0
      }
    }
  }
}
node {
  name: "bidirectional_1/forward_lstm_1/random_normal/stddev"
  op: "Const"
  attr {
    key: "dtype"
    value {
      type: DT_FLOAT
    }
  }
  attr {
    key: "value"
    value {
      tensor {
        dtype: DT_FLOAT
        tensor_shape {
        }
        float_val: 1.0
      }
    }
  }
}
node {
  name: "bidirectional_1/forward_lstm_1/random_normal/RandomStandardNormal"
  op: "RandomStandardNormal"
  input: "bidirectional_1/forward_lstm_1/random_normal/shape"
  attr {
    key: "T"
    value {
      type: DT_INT32
    }
  }
  attr {
    key: "dtype"
    value {
      type: DT_FLOAT
    }
  }
  attr {
    key: "seed"
    value {
      i: 87654321
    }
  }
  attr {
    key: "seed2"
    value {
      i: 5177815
    }
  }
}
node {
  name: "bidirectional_1/forward_lstm_1/random_normal/mul"
  op: "Mul"
  input: "bidirectional_1/forward_lstm_1/random_normal/RandomStandardNormal"
  input: "bidirectional_1/forward_lstm_1/random_normal/stddev"
  attr {
    key: "T"
    value {
      type: DT_FLOAT
    }
  }
}
node {
  name: "bidirectional_1/forward_lstm_1/random_normal"
  op: "Add"
  input: "bidirectional_1/forward_lstm_1/random_normal/mul"
  input: "bidirectional_1/forward_lstm_1/random_normal/mean"
  attr {
    key: "T"
    value {
      type: DT_FLOAT
    }
  }
}
node {
  name: "bidirectional_1/forward_lstm_1/kernel"
  op: "VariableV2"
  attr {
    key: "container"
    value {
      s: ""
    }
  }
  attr {
    key: "dtype"
    value {
      type: DT_FLOAT
    }
  }
  attr {
    key: "shape"
    value {
      shape {
        dim {
          size: 1
        }
        dim {
          size: 160
        }
      }
    }
  }
  attr {
    key: "shared_name"
    value {
      s: ""
    }
  }
}
node {
  name: "bidirectional_1/forward_lstm_1/kernel/Assign"
  op: "Assign"
  input: "bidirectional_1/forward_lstm_1/kernel"
  input: "bidirectional_1/forward_lstm_1/random_normal"
  attr {
    key: "T"
    value {
      type: DT_FLOAT
    }
  }
  attr {
    key: "_class"
    value {
      list {
        s: "loc:@bidirectional_1/forward_lstm_1/kernel"
      }
    }
  }
  attr {
    key: "use_locking"
    value {
      b: true
    }
  }
  attr {
    key: "validate_shape"
    value {
      b: true
    }
  }
}
node {
  name: "bidirectional_1/forward_lstm_1/kernel/read"
  op: "Identity"
  input: "bidirectional_1/forward_lstm_1/kernel"
  attr {
    key: "T"
    value {
      type: DT_FLOAT
    }
  }
  attr {
    key: "_class"
    value {
      list {
        s: "loc:@bidirectional_1/forward_lstm_1/kernel"
      }
    }
  }
}
node {
  name: "bidirectional_1/forward_lstm_1/recurrent_kernel/initial_value"
  op: "Const"
  attr {
    key: "dtype"
    value {
      type: DT_FLOAT
    }
  }
  attr {
    key: "value"
    value {
      tensor {
        dtype: DT_FLOAT
        tensor_shape {
          dim {
            size: 40
          }
          dim {
            size: 160
          }
        }
        tensor_content: "\375\361\336=\230@2=\233\005\276=vh\"\2760j\244\274\220\202\271<1\375\006\276 \020\315<92\355=\346\345\220=\211\001\033=\272\224\205\275VH\251\275\237\334\336\275\027\356\335=\257\251\212\275\226\263\257\275]\225\236=\247\300\234\274F,\t;\377\317\017>F\364\237=\035B\t=N\204\013>S\316\242=_\036\216\274\340\357\244\273iX(>]\t\332<\222\344\264=\220\375\235\275J0\302\275\025g\200=\253K\302\275\312=\230\275&\355\231=P\207f=\331\321\276\275\340\360\\\275\001M\350=\266?\233\275\350?\255=X\223\205\274\270nK\275\362\244\272\275V4\206\274\246\022\333<\022i\210\274\'\222\013>H?\037\276\326\3415\273\370\'Z=\257\032;\2744\0101>\032\242L\275`\351L=\2554b=Bd)>\275 \224=\340)\263=\354M\177<\366O\230<-\210\365\275(9!\275\347\033\t>\323/\033=\205B\325=!\031\360\274\357\332\036\275\206{\235\274&\215\222\273\315\276\234\275B?\004=P3\216\275K\3575\275D\335\315\274\252\'\307\275\235\225\014<\306R{=\237c|<3\211\312<\345O\342\275\370\323\300\275\205\000n\275t\305\370=\250\332x\275,\007u=\351\t\200=\177d\346\274\344m\210<\315\3549\275\335{\256=\177\231\">\370\2357\275SL\206\275&\332K=\251\255\002>iJ$>\276\\e=Mg\227<\254\026\020=\215\001g=)i\235\275\300f\273\275U\311W<\355+\324<u0H\275\227\255\207<\232\311\004=j\013\366\275\274\020\225<|P\320\2755\263\274<\377\361)=\030\375\202\274\262qE=]\027\367<\3750\365=1\233\363\274+\027\"\276`\031\'\275%\236G\275[p\262=,?\224\27538\303\275FN\362\275HO\003\275\336\020\007>\253e\002>\255S\235\274\227;\253\2759KH=\022\334@>\223\375\211\275\212j\311<+\010\255\275\30506=\317\266\304\275\366\316K=\302p\000\276\227\r\001=S\252d<dhM=\361<5\276z\332\243\274\307\026\005=\252\034\001=\335\314\374;o\267Q=\366\237y=|\305\243\274\313^\374<\007$#=\240\367\031>\217bQ<\024\211!\275\230\230\231\275r\207\036\275\030x^=\341\3273\275\314\202\340=\'3\354=\271\3767\274K%K=\374\2546>G\016\314<^\013\006>\020\234==E\357`\275c\267\223>\2772\215\275\326\027\256\273\032\372\033\272\010S\374\275;\2556>\021U}\275\313\334\r\276z,5\275KC\274\274\010n\334<\340m^=$s\354<]\244\327<\300~\266\275Y@\007\274\031(\024\275\335?\021\274F\031 \276\226\247:>\314@\031=\354)\323<B\365K\275\027z\013>M\321\220\274\312\214\375\274`\240\224\275} A<R\326\206=n\217$=\367\022\270<\343\020\350\273\013\240p=\272\332\212=o\342j\2747\202\362=\361\271\273\274\256\027\035=\310\240<\276$\354 =\360\344\314\275y\330L\275\252o\331\273Ra\331\275Tq$\276at\355=\306A\021\274\252%\225\274\002R9=\230\342B\275\345\213\232=\234\366\240;\341\224o=U\025\025=\371\211r\275\353/\366; \022\247\275\2547\211<\201\016\355\275\204~\016\275%\275l\274>\032\001=*\277->\237u,=\345\001\265\275V\303\314\275)\250\253\272\273\200w\275\333\014\326\275\014\027\361=\333\216\363\274}dK\275J*\'\275\302\017\217\271r`z\274\247Hb=\025\231\274\274\030X\007\274\t\260\373\272\001*\030>R\210\303=\253Rp=\277K\002=\342\000\266<R\334\335=I\331K=9\"G\275z\024\220=\230@\\\274\022\000)>\305wB\275\336v\344\275F\354\237\273\036\216\215=\270\274m=\230\223\365\274\036\213\341<\"\253\221=\373\205\022\274^\240\204\274\217\014\267=>\365\374\274$]!\274\217\n\256\275!\226\024=\302\237\302\275BN\307=\373/\374<\227\2708\275\241]\223=\362\024\321=\223r_<V\210\004\275\243G\277=\221M\367:\0264\032=f\262Z\272\267\016\372=p\217\276\275f\335D=\232q\033\275-\270\261=qr\t\276\243A\211\274\267Wk\275\202R\211\2745\316\023\276\000\276%\275\177\177f\275\213\2331\273Rw\247<\266\306G<\351*\250=)DH=\030i\301\275\001c\217<\254Q\363<f\361t\275\314\304\345\275\301\263\032\276%\013\270\275\024\267\'\275]\233\316\275\353\365\320\275\254D&\275\033\351\017\275\362r\200\275h\347->\274\252\211\275JP\220=\300\221\306\274\242\033\247\275`\365\265=*\361\232\275\262\377l\274\2421I=u\r\242\275q\030%=\201$f\275\317\023\314\274SO\222\274\246m\220\275E_\203=0\006V<Rb\005\276\016]\277\275\030/\006=L\336c\2756J\347\275o\233u\275iR\005>:\327\233\275{\t\002<s\245\027;%\364?\2759\3546=\253\\M\274\006\221\234=\314\300\r\276\373V?\275\327\206\314<\300\023\002>]+\321\275\"_I>\026\362\252<\343B.\275\341\357\202=&%\027=\217S\220=\364Y\016=DP\366\274JW\002\276\260\263V\275=\217\003\273\232E\211=\010\3443<k\021\207=\255\266\027\275g\202\307=\331\360L<\350,\247=}\314S\275)\240d\275\014\244\360\275\301\036\332=\332|\244=\230a\210\275\010A\321=\327\376\312\274\211.\005><\020\236=\300a_\275\032\343!\275\"B$=\260\2068\275ZT\001>n\215*\276z\241I\275\221\035\233=\022>\344=\2132=\275\334|\024\275x\276\253\273\364\020D\274x\021\202=r\244\002=\317\231\024\276\323\251\367\274\332\034\326<\343\031R<\257EJ\276\326m(\276Y+\035\276`<\357\275\020\246\252=_;\263=;\346^\274[\210\220=v%\202=\303\241\234\274R\020\000\276\346\344\t\275Z\267\253\275\r\0269\273.\034\303<\240mX=#\321\250\273\265\336\377\274\265\371\034\275z\005\216\275<\375J=\345Y\252\275\346\222s=ij\361\275\013\372\323<\261\232\036=A\017\014\274\200g|=\323[\256=g-\022\275\002\240,<J2\321=\247\260\206<\275{\213\275\036W\316\275\314*\221\275\\p\013>{\254W\275\034\214\340\275T\021\253\275\343\016\t\274Y\322\272<5\240\211\275\030w\326\274j\324\315= \023v<z\305\266\275K2\024\275\235=7\2752\372\017=}/(=|q\371=z\311\037>\263\326%=\307\317)\275\000A\203\274\244qp\274\232\331\246;4B\276=\334T\010>\322\300\021\275\031\002A=G^;=\r\020Z\275\0040>\276\017\356\201\275ZZ\003\276\000\244\025\275+\037\207<\241\376\231\273\345\234?>\217\256[=^a\352=Z\362\247\274\306\335_\275\"tl=\333$4\273\352)\010\276z\023\247=\332$@\275\367\246%>\'\273\251=\222o9\275\257\271s;p}\231\275\034b\305<0\337\233\275>}a=\034\203)\275z\002\232\273F\245?\273\311\275\027\275\240\327\204=\260\340\006\276\324\016\365\275\200\377m=\327U\212=\277\036\302\274\374mz=D\232\337\275\363vO=\025\202\206=\032/\366\275\336I\316\275\037p\341\275\037\177\212=x\230i=VY\225\274y\246\002\273<\330\371\275c9\020\275\323\242\377\274\002G\"\275=\344\207=\014\031_\274&IN\275\342\2565>H\242~\275o\351\347\274\353b\331\275>s\265\274=>\357\274nwv=g\253d=Oi\234\275\300\202\367\275\257;\327=*\306\245<\253aw\274|\206B<)\232\310=\266\360\364=h`.\274\365\001\250\275/\230o<x\252\227=\241\370b\274\r61<\013\211\202=\222\353O\276\342\307J>\315\310\017\276\347\330\021\274\r\215R;\371\266D\275\033\260\221= +\303<\245|\322=#\246Y=x\323\017\274\003\023\033<(nu\275t\0340=\246\\\346=\242\312\002=o9\n<\256\202\202\275O\206\374<n6\240;i\000\024\276\221 D=W\311c\275\024^\207\275ad\316\274\276\2308>\026\325d=\334u\262=|\231H<\203\323\260\275\031\232{=T\346\217<\251\260~=S\013\253\272\201\342]\275\264\305\016>\250\336A\272RE\224=c\311\224\275\354\273|=\360\243/\275\003\t\262\275\240\r\266\273 \205O\275\311[\254\274\006\371J>\343\251,=\265\254\230<\035b%=a\225\'\276Q\364o=\331\r\363\275D\222H\274l\266\270=j\354\346=\260c\323\274AF0\275\207\310\365\275\215\256\236\275\314\346\345<r\216]=\343UB\275\220\332s\273u\316\346\275f\250\226\275\214\311\341\274|$R\276yh\237=\t0\231\274\033\333\014\275\022\377\031\275\353\032\243=e\230\253\274~\231)\274\362\377\222\274\376\303.>\3736\240<\231R\325=b+\340=\314\205\022=6Z\347\275\337\377\376=Z\241\311\275\017\347:=j\351b= PY\274\240#7\275E\2343\275_\370\007\276\333\014\362;b]p\274}:\006\276\270\000#\276\232\356\";<4\211=\033}\223<7\347\013\276k\002+\275\234Ve\274\001\300\207=y\373|=g[\343\275\036G>\271B\371\206\275K#\031\275]\300;\2754)\010\2754\232\020\274\221\377&\275\241\307-\275\014W\r>{\025O\275F\006:\274\364\341m\274\267\373\340=\320\033\372=\235\254\033\275\203[\032>\203T\266\275?A\235<\377\371\232=\202g\215\274\215i\271\275\242{\234\275`\224\336\275gK\236\275\362RV\275\233\230\016\2764\317\265\274\361\n[\275\032\356\240<8?\253=C\037\021;\354\270\242\271mc\204\275\246P\016=\340\226O=\357\037\233\275\014T\337=\301\364\277\275\267\314\233\275\346\030+\275\241*\001=\004\177\332=zWa\275Q\335#=\2567\261\273\2353\267\274\303\003\264=\224V\252;\234\371\350\275m\355;\275\225\341\233=\310`A:Z\252\315\274\344}\337;\355\234\236=\333\037U=\232\372\234\274\231\234\352\275\351I\224=)\354\335\274\233$\307\274_@\317\274\226\335\004=\301\335q<}\031T>\375T\235\275#\331\245=\317\2766=\230\260\r>@\003\262=\226\231\216\273Mm\205\274vM*\276\343w\266<\271\330\005\276-\017A<\314\313<\275\245/\004=\212\260.\276\225\037\020\275E\274a\274\325\266\320\275\010R\205=\201\2278<e\005\357\275\263\3730\275\246%\016=\316\331\311\275\203\037\313\272\262\034T\275\214\221\024\2764\003n\275\261t\000\276\204g\323<\322\026\357<\027h>>\036E\213=\030_\003<\006[\271;hv\276\275\006\257\346\275\263\310\215<\005PB=EK\251\274\332\332\352=\210h\232=\373\271h=\316a\253\275\nQ\206\274E\0049={\366\267=>9.\274\256K\225==@\233\275\216\327\244\2758\031\261=(\200\302<\305\345\221<\211L\005=\345W\227\275\234\036k=\265\225\320\275o\333\002\274\252\300\325<\257\333\346\275\265\005&\275<\033\007=w\271\262=\246\200\351<\363\342\272:!\376\034\276\272\375\250\275j\204r\274}\0036\275\306\320\246=\305\316\300\273\261*#<vV\006\275\033\021\271=DO\247=\361\355\335;\204R/=\323\350%>;l\357<\242U\337<_\022\026\275d\223\317=\n\3573\276\226t7=\362\367p<G\351\207=\376\230\226\275\265u\240\275wu\034>\2138\356=\003\210I\276\205Sl>\327\261\353\275Q\254R=\016M\\=|2G\275\227Q1=c\225\222=^\032\025=\325\2323=\344\265\222;4\270\306\275\037\030\271\275,\231s\275$\270\t\275\025\236\\\275\246\205,\275\253\003\225\275?\364 =+PA\275\031\222\244<%G)\275\253\300U>>?\221\275\340\235\230=7X\205=\275\333\202\275v\227\337=\007<M=\360\353\247<\t\022\353<\213P\355\273H\377\217=\'\347\302=[7\212\275\347\307\010\275\204\3301\274\361\364\006=e\277\016\275\210\304\373\274\311E\205\274\305O~=t?\357\2753\323 >\321\017\002\275\274\240\r\276\334\036\005=\321\214\331\275\322\215\023\276\321D\242=ab \275\327\365a\275\325\220i=\264\010\224=K\206\230<\323\3066\2759\006\266\275L\270\033\274\357\341\222=u\235>>\304\235t\275\355\007\3368:\027\332\275\373\244\314<\326k\t\276\336`\272\275\017\367\025>\352\\5=\342\240\035>\311\\\236\275\201\346\336\275\001\227\005\276\320\340\214=\006&\247\274\263\216\332=\345\305O;:$\230=A\350\014\2757\245\333=_\273\342=yH\014=\365\222\030\275Z\2346\275d\001\256\274\035\302\230\275Q\230\033=q\202\330<9\317\030\273\024n-=\256\245E=\250!\034=\200\364\352\272\355(\232=\232\244O=\323S\013\274$bX=\036-\324;\022\n1\275\325`\035>`\311t=\234\341\374\275\237J\341\273\265\004\314\274\2442\331<\375\255)\275sS)=D\237A\275\210\323<\275\314jl\275\227\360L=\307\202\351=\244\201w=\302(\312\274\347\t\240\275\354\217(\273\243\007\001>\'\036\264<\276\005+>\351\357\001\274\267\0301>\225j\317<\312\345\010\276\353q\254\274\224\366a=.\3560>\256r\241=\344\351\220\275j\307\t>D\030\206=\304\301N\275\037\244\023\275\360Be\274\2468\247=\202\315\350=\030q\272\274q\233\355\2754]\005\274_\314@<6G\377\275\013\276h=9v\277\275\353A\270\274\274\371\364=\200\"u\276(\033\'\274\220\204\332=\366\357\272<y\265\220\275\344\213,<\021\341V=P\200}=Y\263\016<\215\375\'\275\323\257\021>\252m\231\275fe\002\276P\235$=Y\032\020=\020B\005>4\267\203\275\362\001\370\274\316%\206\272\2207\264\275\367\322V\275))\265\273\307\307\275\275\242MA>\200\377\312=\223\026-\275Mju\275\336\215\214\275\260H\2367\356)A=\025S\215=\225z\313\275KK\261\273b\034\330=\306@\016\275\261X\364\275*)\300<\005 1=\347\262\246\2754\224\315==\240m=z\277\002>\224\t\301<\377V\027\274\374r\252\275q\206\312\275#\304\240\275\351\350\241<\264\2700\275\207\262P\274i\235\304\275\206N\241\275A1\276<\260\371z\275\024Q\353\275C\367*\273\025\020B=e\033\242\275\361\376\370\275{\371\251\275%\017\021=\373\341\371\274\247C\321==C\276\275\006\333\233=\233\347\335\273f\215H\275\220\225x\273\217\n\022>\033**\275\'\010S\274b\366\256=3\272\353\275\002%\272\274\306\264\014>M\004\265=\035\256\345\274\002)\357=\263\341Y<\200\337\206\275\022\013.<\310\322\004\275\007n=<uC\253\275N#\236=\351*g\275azb<\'g\227\274\251X\332\273\205\313\256\275\245H\300\275/\243\026<J(\344:\252\207!<\362\220\364<T\257\006\275\230\231\354=\355\254=\274\247\226\227\275\2750\016=/,C=Gz\275=\005\207\350\275+\352\013>0o#\276\216\237o=\0015\001\275`{\\\275T\344\177>\360\344\014=\242k,\275;\n\233\275\235h\027\276T\014q=]\002\277\275\336\017\276=Bj*;lH\255\275^\246\334=\316\206k\275\373K\022>&E\357<\017Y\257=\342\334V\273\301\342}\274\272\254\325\275y\323\023\275\266\314\223=\240\355\020\274v0\340=\010\016P<\207r\365\271]\310o\275uf\255\274\353\305\322\275\371!>=\035\212\270<;\002\360=|\204\003=\000\020\252\273\255\201!=\257\356D=\211\222O\275\001\212\n\276\033\252\257\275\265t\377\275\025\014\002=\035<{\275eZK:\202\362\032<e\217\033\275\224\232\r>bP\001\276\247\236\301\275\262:u\274S$\213=\r\275\216<\312\215\005\276\353\233\003=b\3560\274\253\241\250<\034\n\220<\005\364/\276\323f\230\272W\215\020\276\253q\303<Te\020>\254\373\377;\352e\201\275\250\337\021\275\256\254\247=G\371\214\274\240/\253\275\260\224\006\275\337A\223\275\273\010v\275\030\273\301\275\3752\003\276Lj\275;\r\204\323=\262\033\003>\211\363\370=\212g\344<\355G_;\321>\375=\324\216\250\274\034\310\230\275\271X>\274\237\323\\\275z\373\204=\024\237(=\217\033g\275\263\317v\272=\257d\275\315O9<\333?\247\274\372\300\023\275JZ\177=\3668\241\274\344h.\274\371\322\207\275\025{\013\276\030DO>\236\r\300=k\267\326<\265\025\240\274\025\347\252\274\234\356\267=\251sq=\362\221&\275\337\351\315\275\222\313\002\276n]\024\274`I\273:8\375\246=V`\n>4Ln\273\271\273\247=\030\010<\276SO@=\003s\206=\211\234\200=\346\276\202\275\374\312\346=\264\013\032\276\317\023\301=\tm\245\2700\024\006=\323O\004=\245bG:\272k\217\275\036PB;\242\315\313=\325\0318\276\212\363\256\275\0276\235=P\246\2279\342\016\227\275\r\313\254=g%\234=\371\277\317=\016\030\361\274\251\304\236\275\217\242\027<\024e6\275\277\021\210\274\347\030z\274\206\0022=\036\377\300=Z\\D\275b\326E;\254\202\212\275\000_\t=\373\306/=\217\325.\274\254O\005\276\227\026\342\275\334\217\342=\002\007\243=\322\273v=d\255H=\2179\342=\035\352b=6a\300<\022\236\362<*\307?\275\250L\305\274\261x\034=\271\310\035=a\340\231\274\331V\250\274(~\321\274/\307\234\275[\274\330\275\364Q\255=\275\254\351=\030r\251=O\254\010\276\254|\250\271\000\305\026\276\031\265\354\274\0329\203;\325\n\272\274\365\300\270\2758\245\270\273Y\216W\274\253\273\320\275\307\215J\275\265\2310\275c\337\230\275s\377\331\275\0030\013=\253~\361<mE\316=\247m\315\272\223\262\240<T\240\304=Ea(=I\270\016\276\246t\366\275\374\252+=h8\221\274\204\002\370\275\325d\350\275z\033\210\274v\253\311=\001\251\217\273\220I\225\275\372\253\255\275X\364\200\275\245\202\357\2756\374b=\227\'\025\274\275\010\273\275\204Dt\274\346\264\212\275\232*\263=\346\257p=&\216)\275x\324\256<\323/f=9\"\"\276\235\014\205=z\0210>\221\256]=\204\300D=\017\263\255\275\306AH>\221TW\274)\367|=\343\324\330\274\326\300V=\374|A=\253?\001\276&\323\336<:\213<\275f)M>\363{/\2766\234\240=\206?\344=\335\035B=\344\r\245\275w\2420\276\341\360\232\275\0242\034\272I\343\353=\233\315\221<\276]\233\274N\324!\273\273:\t\275\251\277\251\274*\027(=\027\274c\275\256,\210\274\003\360\020<\277\277\256=\356\333\021>\035\252\354\275@\366\n\276\342Q\272=\033h\037=\277G\223=\315\"\315\274!\231_=\317\347@\275*Y\250=\227\001\033=\254B\225=\013\025j\275\347\025*=\235&\262\275\261\340h\275\014@\252=d\327\201\275\332\177t=\344\030\000\2752\237\245=n\363 <\t\322\307=\346G\334\273:)\244\275S\262\353\275\332 \335\274\020xE=\302,\277\275\027\330\357;/\311\033\276\216\250\242=\017Bl<&\343\225\275\035f$\276M\237k=*\003@=\354\2531\275\r\227&;\014}\023\276\242_\203\275\224\016\211\275\351\312\001\276\352c\321=l\2357\274\340\341\322\274-\251{\275\246[\264\274?\301y\275U\244\233\272\361[\201=([\316\274\262BV=}H\243\275\202Z\225\274\362c\241=\022\330\230\275/\206\036\275Y\237\320=D\353g=\240\026\240=\362\235\252=\326\006\222\275K\246\010>\337\0065>\366\276\277\275\303IZ\274\177\0048\276\350V^</\024\367\275o\3733\276\221\206T\275MC\204\275n\177f=\373\025\032\276\350\244:\275\221\312\210<\035h\236=\256\254\370\275\235\277\317\273\231\261\227=\003J\r\276\247`\r>\275\371\014\276lW\222=$\347\337\275\375\240\177<\300\2738\274\226\255\301\275\237\271,=F\244c\275\252\315\030\275~\351\311\273f\344\327\275\006>\226<m\357;=\212\365P=\320\261\346\275\014QV\2727zn\275/\215\200\275\360\260)=\302\347\016=\260l\266=\303\010\256\275\353d\247\274\030\253\274\275X^\217<\032\301<\275\301\032\264=Y\316\214\274\364\004\305=-H\221=!\351\247\273\355$\275\274\316\360\333<k\332\371\274\\\203,\275\376\021(\275\326W`\2766\322\221=\310\351\r>\211\370\t\275zSb\275Yw5\275Lvp\275\320\302\220\275\343f\221\275\366r\277<\366\236\315\275\264~\304\274Y7-\275\302\222\251\275p\354\376\274N\363\033>\374\235`\275\355/\315\2740\345\177\2749^\274\275\2502f\275\214\212\203\275iV-<\216,\230\275\302-\242=\224(\002\276\023\250\375\275kJ\016\275\252\310Y\275\272X6\275ZyQ\275\256B\023\275\3340\006\275\027\275j=a\226\222<\354^\200\274\254\211\264=8i\263=\213G\336\275\373\220<\273\254\202\335\275\337.\013\276\250\371\220\274=\215\337=>p%=z\303\">(\017\024<\270V\030>r\004\370\275\006\220\374\274\352?e\274Ug\254\2757\034\246=\264p\232\275\353\323\321<\037d+=\341-k\275\362D&>\\\363\016=wh\250<%<%=!\033j=\204$w\275]\016\366=\323\266\270<\353\007\006\276\227\252#=\200\205\245;\302\244\030\274\016\t\340=\260\310(=\322v,\275\332\231\000\275\367ao<]Rn<w\374\025\2757\200\375\275\250\237\233\275\310\033\252<\035\023\360\275:\013\214\275~\372\364=\230r\031\274\263}\214\272\216\377\351\275Z\344.\274\003\021P<e\013^\275\376)\001\275a\246\264<\373\022\307\274\372\205V=\270VB=QA\243\275\337\255E<\302\325\017=\206\270\226\275\002(1\276\361\262\344\275q\212\250;\342=x\274X\337\255=AC\370<\263\316.>\234\340\236=/9}=\366\005b=v]w=\270\017\345\274\234\271\353=\t\035|\274\206.\363=\310]\274=\236Mt:\253-\260=\334\314\220=G1\375\275786<\223\345\023\276l\201\330<1\215\244=\226\360\315\275&S\r\276m\224\230\274k;\231\275A\301U>\021(\265<\335\315\202\272az\223\274VeG\276ho`\274\315)==M/\225=\246\271c\275\330k?\275i\325\307\273\257+0\275\336\276K<\\J%\275\222L\213=J\377\205=\310B-\2742\364N=\375\354\267\275\"-\'>t;\r\2767\014\261\275\361\007\226<wS\324\275\307\274\210=L\017\r\276\214\242\003\275@\023\350\275\236\263\'>\2404\325<\352]H=\035LR=\263\377\227<\014:\216<\233F-\276\247\235\304=\363\251X\275p\021\351\273\033\"\020\275\341\350\022\276\246\3612\275\003\031\312\274\261\317\240<FZ4=\342u\271;e\244\337=\020\224v=_\240\032\275d$\313;Q(\024\276\322\322_\275>\260\234=\307\002\220={\260\216\2745\303%>\353R\234\275\240\346\240=e\023G=\367k\377\273\326\333G<.\331\256\275\356A\022\275\306\210\207\274\376M<\273\025\000*=x\231|=\255\352\001>\230)[<\220\\\373\275`\224\332\274\306`\225\275\264k\024\275\242\362\335<\345\217\311<\022\243\177\275W\3676\275\377;\354\274\326,\273\275\324\233\346\275\376z\220=9\nh=~\320\335=\342\226Q=I\034$\275\335\253{\275K\357\243<7\\\262\274Y\345x\273\n\246:\275{\017G\275\247\345\257=\256\210v\275\000\002\222<>M\024=H$$=\220\205\014>\202\211\013>\315u\031>/\311`\274@5\'\275TZ\373;\254\324\204\274\007c.\275\230&\272\274J\357/\2759\327\343\275\317\026J=\223\232\255=D\251\307:\246hE=\221\266\235\275\364\345T\275-T\031\275\360\217\203\275\200\363\205=\\\360\275\275\202\353\234=\210\333\271=\373\200{\274\270\377\351:F\353\007\276\237$\320\274\314Q\223<FS\244=\026\217K\274\304\267\206:V4\247=\246KV<\245\333\261=\303\226\200\275\201J\230\275p\265\005\275\303\003\2309\363\327\215=\270\034\234\274\257CR\274\206\211g=d.j\274\275\325\230\274\210a\273\275\261$2\276-\337\276=\236\371\276\275\207\334Z\276\275\336\207>O\301\225\275\217f\266<\221\224\255\275\037\235\347=\362K\033\276\367Wb\275\266\305\333=\213\367\001\275\343$C=\257)\002>L\221\036\276\036U\032\276\234\222k\275\0205\000\275\277\020\272=[\370\030=<+\254=\340\243\343=IW4=\207\333%=\300B\002\276\250Q\361\275\305\224\022\273}\000\"<\311\365\236=\314\353,\276?\300\022=H\222\340=\342+\031\275%\321{=\271\315\016\276m\030T\275\024\010\251=\355\3265=\230]\232\275m\312b<\375\251\242;}\347J\275\"\273O\275k\344\267\275\375\263\310\275\225\2203=.\273\277\274R|\227<ZX\331\275\277C\300\2758U\303\272j\375\274=k\362M=\225\321\275\273\207\237\322=\216\022\200=r!.=x\203\r\274y\243\324=\262\037\026\276>\'\310\274:\313o\275\211x\013\276\014#8\271\327d-\274\017 [=.\365\226\275=\345\023>p\240\242=EQ\020\276\237X\241=v8k:\237e\027=\352L\017=\262K0=m\002\334=,\246\364\275-xy\274\321e\037<\223\225\277\275\206\032\251\274\235w\341\275\206\232\342\274\343Hg=\300\252\014\274&\320\235<\333\311\374=\204\313\315=>{E\274\001\225\330<n\017\362\275\260\367\264=7\304\030\275\270,\022\2755\272\367\274\373/\220\275Hk\244;\321s?>\253\026t<\0245\376\275\362\312\356=\014\265\273<\021\224=\275n\344\352=\271\021@\275\276d^\275z\375\271\273\201\334\315=\320\225/=\364s\204=K->=u\303\223=o\224\025\276)\030\275=\252F\032\275\227U\270\275\307;\225<n\253j<^\3146=\010&\277=\312\327\035\275\000u\204<T\257!>E\335\033>\355\001j\275|\336^\274v\016\037\275\350\350\237;\302\032>\274\206:\200\275\307\037\222=\234%B\275\311E\211=u\330<\276>)_\275x\367\026\276\211\276C=^\205}\275\227\315\264;z>\177\274\315t\353=o\rV\275\207\2007\273\240\215x\275#\316\274=\312\373F\275\010\034\240=\341\r\247\272\n\350\366\274Rz\003\276il\337\275}h6\275\034D:\275v=\346=Mn\237=7+\332=\273\211\337\275x\264.\275:\235}<\331\367D=\372\031\212\274\306\370\237\275%$E\274d\242\250=\307\027\363\275\365\004\006\276\335\367\262=\263\014\354<\276\232R\276\247i\253=v\361s<\031\343\217\275\207zl\275K\315\204=\034\337\313\275\325\231q=:\204s=Rz\260\273m\355/<\207\237H\275\327\351\313<#\227\'<\351\267\213=\234P\216\275\263\275Y\275\201\362\337=\276%+\276\220\234\030>\360\314z<\2658\275=\007\006$\275\362\274\036\275\320\023\016=\200\372\233\275\022z\223\275\344\277\322=\007\225\033>7\234\020\276F\027\365;rU\270<\017\311\274\274\232\2505\272z2\"=N\001\367\273\271\363\226\275Z\"`\274\206\201\347\275\302\220\351\274_V>\275X\322\362\275Kc\276\273\275le\275\331\025c=\335\037t=\242\274\307\275U\345\214\274\335\354\016\273f[\003\275\306:P\275\326D\002\275N\211\000\275\'\301\350\275\206\275\366=\270*]\2733\207\330<m\326\333=\212\035\n=\315\355\017>\273\304\240\274\254\243\264=\222:<\276N]U\275\265D7\275~?\000\2766\366O=\376\277\306=\024f\014=\243\036\017>\000\022\223\275\331\213n\275!\r\342<kZ\355<T0y=\010\024\277=[\0100\275\213t\347\275W\265\206\274\370\321\215\274\311F&\276\205\207\337\275\257\364m=a4?\275\"\340p=\347D)\275z_\236=\210\035b=\273\230\273=&h\353<\014,\373\274\372\233b=m[L\275\302\300\204<\1777R=\335\270\022>\262k\027\275\007\t\317\275>\021@>,\025I\276#~\204\275\344a\324\275\027\236\013=\025EW\275\365q\220<\036d\220<W\n]\275\245\317\301=o\377\371=\212jH\275\302z\306=\366\214\000=\261\277\267=\263im\274\202\257N\276\363/&=T\322\311<\037;X\275\316\315,;l?\332<\371Z\332=\364\245\360\275Q\0227\274\315rz<\266\367\254=\027\232\232<\217\'\332\275=\305{=\200g\\<\351\033\251\274i\3527=R \346\275\252V\216\275\344\004\034<\346\252r<$\357\211=RI\257\274\341\353\246<Qp\266\274\351\376\253;L\375\226\275\352\250S\276\223\204]\275E\023\020=\311\263\364\274z\222\200\275\220\354G\2744\342Z\275\216OG\275\n\330\032>\250;d=\277\336M=6*l=\031!#=\247\006\254=\'\273\261=\t:\270\274\245\026\347<t\310\037:o\024J\275\021\341;=\277\215\306=\365\3207\276s\366\303\275f$\177\275\331\214,>\270\246\276\275h\246\017>\324\256X=\260\017\370=\315GM>\310\262\362<4!h\275,\243\\;[r\265\275\\3\213<7G\031>w\252\200=\311$B=T\2372\275\245u\373=j\177\241\274\356\356+\275\216m`\275\247\314\004\275\251\027Y=\220\225\241\275\2154\020\275i\201&>\220\007\240=4\032\032=\267\034o=t\306o<!mQ>\300\210\333\275\006?\334\2731\202\010>+\035\2629.l\020\275\362e(\275\007\211E\274\036\305|=\376\276)\274\010\373|\275\367\3029=\250\214\311=\006M\013\276\332\361\321<i\033&>\346\021\207=&\200\354=\0215\177\274p\367\304<>\264\n<02\312<r\266k\274r\206\037\275\251\345\253<\027\275\037\273\252s\005\274q\372\006\276\014\367p:\345\2322\275:\277\330\273\342\264\265=\226\366\332\275\206?\217\274<\n =\371\3052=\033\235\373;`\337\212\274\360\022}<(\034j9\346\366\373\274\000e\242\275\262i.=\336\320\362=\265\320\330=\034\254{\275\241\233z=\201\000\260=`\213\\\275\014\345x=\341K!\275,\033\275;\221{\013\274?<\035\276\242\343\234\275\225\320\311=9\007j\274\320i`=#\201.\275QT\216<\2656\337<\\P\020>\266?^\274vC\271;\344\256t:W:\033\275\257!K<\373k\003=j\310\267<\212)C\276r\301\360\274c\267<=#\253\316\275\241\307B\275\311\n\250=45\214:\270\265\331\274Ud\200=\203\343\216=\215\223\023\275\013>\302\274rP\236\275H\356\365=z\313\324\274\233\242\003\276\273\352\263\275\253\020&=\312\0374>T\246\"=\244a\351<\362\250\235\275\350\320X\274\343o{\276\353\252\317\275\265\262\210\275\033\316M=\030\351H=\377\226\322\275\342I\260\274\250\213\030\276\241\005\232<\244\307&<m\331j\275_X\">XLF\275l\024\214=\326t\266=\236Y\247<L\201\274=\223\357\250\274\254\363\233=n\242-=R\346\253\275d\324O\274\250\031.\275\201U\032<\366\027\205=1\266N<\235\020\354\275\311\334%\275\374|\023\274\023\312!<\255\033\t=C\004&=O\257->a\210\376\275\001\022)=!\256\271<+3m\274\t\245\203\275\240\273\335=V(7=\207q\257\274\313\340\301<\325\211\201\275vx\353=\246\335\037>;\366\221\275\310\264M=\214\274]\276\344\004#>\241\025a=\343\235\267=C[\301\275\355:\207=\305\023\023\276\311\273\217\275\232\313\211\275\356\213\003;\001\247\270\274^\323\002\276\313\316\022=L\224><\256\314\'\276\'\327=\274\035[a\275\223\251\232;\2245\207<\275\224\254\275\317h\024=\0004\224\275\255\327\231\275\333$\215=\254M\017=\031\376\313\274\202\355T\275\350\363\322=B\261\220\275\026\020l=\"\3211\276\237\277s;\273?\270\274\231<{\274\035\302\350\274\2212\215\275\371\033\357<\356\205\341=\315$\014=\322\2611>~!\010\275_\214\020\276Tgs<(lL=\344\344\222\275\275\361\321\275\010\033\225=\024PK=\354u\256<\324K\271=_\232\355<\026\217\224\275\214\005\360\275\371\266I\275\003r)=\374\014[\2741\320\211<\001\220\341\275)\363\013\275l\272\344<\371U(<\177\231\275=u\345\337\274\263\330\021\275$\021\253\275\372F\201\275\216!\027>\023\267\300=\020:\301\274\"\031\205\275\317\373\317\275\366\272\227\275c\265\272\275-p\327\272%6\023>g\373\001\276A\375\017\276fi\001\276\214\203\036=3\201B\275g\336\335<\004\023\"\274\3066\257=\236\302H\275*\324v\274>\255\014\275\225\323 >\373\353,\276\376\005\337=lu\315\274\267\000\034\275\020\270o\275p\361\347\272\203\254\365=W\212[=#\264V\2752z\351\275\004\364\204\275\361\345\377<\021\241\226\275\036\270\006\274\230\230\234\275b\031\245\275E\326l\274#\023)<k&\360\274\365x\310<\024\000\302<r\310\323=\340\374!>\221\025\204=\271E\265=\021b\005\275*tf\275\276\204\327\275>\343W\275\214\001\211\275\274.\'\273\344\371\273\275\333\331\242=6\256\232\274X\333\202=\374\277\247=\340\201f=\352\233?=B\373\257=\322e\325\275\346\322z:\231^\274\275&\\\005>l\327\333\2751+M\275\035\372P\274R\254\216\2755\273\207=D\3648>\335fZ<$K\340\273\274\245\257\275\330\020\325=\302\370\240=\024Z\014=\370\010\337\273\2607\'\275f\377(>\216\272\007\276\017\270\360\274u2\320;l\251*\275\310\302\201\275L\371X=Y\261\220\275\221\366\271=\030X\354<vfw\275\346z\241\275Te\334=\223\311\210=!\326\256=\330Q\257\274O\302\000<\272\252\326=\314\215\312=\205\037\232<\005\311\370=A\022Y\276Z\006\224=\316\237C;.\336\263=\317\356\200=j\030=\275\323\031i\270\300\034\001>\007<P\274\225S\210;I\003\007\276X\361\250\274\307n\227\275\345Z\251\275\n{\322\273{\236b\275:\265\'\275\006\177\327\275\333\272d;\205G>\275\225\346\232\275\323t\213=\307\270\263\274y]\303<\270.\005;\220\340\342\275C v\275L\272\326<up\365\275\215q\232;\330\321X\276\335\353\177\275\312\360Z\275f\3534\275Y\216g\275\230`1\2753>\214=\253\310\034>\354\313\306=\331O\310\275\033\003\336=:I\304=a5\341<\027\203{\274\177#\005\275\330e\";\251\317z\274\214\024\230\275\"\271\327\274C\356\333\275\273\241;\275e\031\n;\337\226\230=\231\021\032\275$\314\231\275\207gf=\353\262\262\274\252\274\004<\006\221c\275\266\320\343=\316]\220\275\270\035\332<0\247:\275C\363\351=\354\311\250<\035\316\256\275#\177\t\275\2152A<\362\347r=\\\322\267\275\314\225\210=<\267\271\274[\324\\\275\212\310\231\275\3021A>\360\006j=\373\363)=\241\235==#vP\274A\352o\275\232\237*>\377\214\010=;\227!\274\333\017!>\350B\264\275p\332\031\276\364\243\222=\301H0\275\013\305L=n\360\220\275\352go>\007\357\207\275r\032\\=w\032d\275\253\274\023=)\217\201=\204v\241<6\300U\275\301\313\376=\\2\306\273a\263\263=\017\020b>\372\177)>\0147V=\3474]\275\321\337@=a\202\371<\300s\227<(\315\201\275\374;\342=\255>F\275<\025R>\362#\307\274O\251J=\256C\332\275v\026\224=A\232\245\2753\022\374;\306\311\035=\302\022\033=31\261\275L\334\241=\033&\256\275\344\254C\275\371\271\347=\351\240\235\275h\021\307=\007\357\032\275N\2329\2754\313\312\274\353\263\212=\364\321\376=<\271\341=\350\374\321<\322\267k\274\"\252\275\275a\375\206\273\032\037\223\2756\001\355=\327\377\347\273l\013\227<\246\341\210=\356z\n=\321\226\247=\337}3=\300\020\200=\216\311\353=\356E\303=\305\326\377\274\311\024\"\274\003\340\026=\357\035]=a\224\353\275 g\013>J\"\233\275\006\336Q=\254\375\336\275\332q\006\275\331\350\243;\207\332@=\027\272\200\275\341\226\240=\000\325\000>\224\360\236\275 \317@;\372\314\301\275^l\277\273\331LK<C\236\005=\247\r\216<$w\345<\034\266\231=X\314-=Q\213\275\275\235o\306\275$\306\345=r\357\214\274\235\341\237=R\020?=\356\246\377<+Zc\274e\244\336=\313y%\275\r3\263=\340\270\251\275,hb=\252\360\025=\364\363i\275\"\253\'=\320\240n<\030\372\202=:L\315\275N\266\355;\277\r5=\006k\343<\246\301\234\275O\377\220=\033\273\373=\010\315$\2737W\246\275qA\325=\342\376\256=e}\206<~U\344\275\305D\225=\342\364\366=F\224r=94%<\327\230\216\275\017\347`=\360\303%=i\232\031>\255\226\220=2T\245\275|\331\366=\010p\220\275{\0054=\252\327\304<wT\365\274f^5>u\365\366\273\221\372\371;\373\210\200\275\323?\247=9e@\275\ny\000\276hJ\230=\327\340\007>KW\304\275\327\310\027\274^A\370=\200\344\033=\350\364\214=Q\351\276\275\2052\023\276\347x\276\275\235\252q\275@\333\236\275$\251\354\275\246\251\337=B\2123=\374\311\315;I\222\233=\021\251n\275P:\235\275\266jk<&\n\023>w\315\355<U\221\312=\213\336\347=\265\243d=\210\320*\276\351\3700=\246~\214\275\311\320\335\275\341\013P=\320D\350=\360}\271=x+\327\275\330\027\304\275(!\022=J\001\311\275\261\353\034\275+\354\267\275\004q\352\274v;x=\033\267\004\275\220\376\306=L\375\373\275\327\033\204\275\330\247\024<7\266d\275\'\273\312\275G\355\202;\223\006>>\373\017\253\275k\372\215=([\030=2\361\037=\212\320o\275\313\233\272\275\034J\252\275\025\2658>T*\361\274\226\276[\274\006\242\005<T@\241\275\0274\353\275\256\2124\276\271q\035>~\252#\275zt~\273[\275\260=\202\211\260=\356z\215=\375\371U=\216g\013\276\005mf<\0057\"\275\327\212\335=\252jy=J\223\240=\325\316\256<\347\211\033\275o\255\232=ym\316<k\245\212\275\305m\264<\002k\022<\024\302F:\3744\221\275\265\'\022=~||<\301\370*>*\245\357\274\244\342R:\210B(=\257\300\022\274\222\016\002\276\255jO\275+\210I\274\024DS=\226\360\017\274\222\014\025<\273\332v\275\2736\336:O9\t\275\212V3\274U\t\'\275o\363\346\275<\300\2029Z\271x\275\273\346\014;\243\261\235<!\313\033\275\331\352\365<dA\007\272\207\213\341\275Z\232\366=\022\023j\275\252\213\203=\n\332\231=\223\213\253<\035+U\274\335\021\r=\215\023;\275\231\341\206<(D\014\276`\'/>\362\002f\275\227\r\317=Y\n\377<\370\372\373=\366@\013=\030\337=\274\366\215h\274\304\001\224\273\005\340\271<\216x\302\275\247^\341\274 a\207=8\005\200=\217c1=\253\\\273<\366\342p\274\241\306R=?\342!\276\257\303\220=\032\345\350=$+5\276\313\301\274<\277l\363<\341\305?=\\>\010\275v\300\360<\231z\032\276ca5>\270F\377<\303\325\264\270\356\3174=@5\200=\024e\304=q\244\004\276\230\024\312\274D\350\357=\321\210\237=\277[\203\274\314o\244<\367b\375=\376\276\204=\242:\007\276\376\336^<\026\023\032>P\325\356=\026\312-=\242\225\220<X\006\307<2s\260=w\254\316\274{+\220\275Cv\026\276z\324w=\375>\026=\303\324,\275\230\335\242;\316[\374<t\374J\275\313\na=WZ\237=\304\360\323<\017 \260<O\264\332=\264\264>\275\330\341\017\275\3467\025\273L\330=\2742\300\310<\216\357\334=5\324\362\274\276\362?=\232g\007\276\344%r=\036\344\334\275\345\035\201=a\262\013>*\262\232=eD\307\275v\037\333\274&\221\356\274\010\321\300\275\311\245B=J\324\031\274%6\006=\301\353)\274<\023\241\275kf\376= \346\362=\312\313\353\275\226\250\312=\322\275\246\274\340\251B\275\217\230a\275\362\325\310=<\r\213=!V\323\274\376\344\027>\216P+=\266E\033\276\347\276,\275Au\250\275\252o\227=\1777\010>x\3451\276BZ\206;\331\314\333<\035\205\000\275\320a\246\275 \365l=\177xh>\254\361:<\213\004\001=\202\215\r\275\371\226\355=\024\276\240=\177j\311\275g\347\337=CQ\330=\030\211x<\315\204j\274\202J\263\274_\336\244\274\373k>\274\341fN\275\022\217\211;\353\275\332\273&\302M\275\366\341\233;\024\007C\275\023\270\247\274\244\243\374=\204\373\023\274\351\254\365;\034m\224<pd\022>.\240\036<\325.\374=\315\340O\275\004\321&\276\334\243\360;\016\232\317\274~\375\211=G\317X<\374\0141\276\353\375\335=\247\0166;0\221\272\272\351k\244<\264\010\242;H\221\022>Y\362\300=\001~w<\227\335\200=kd\212\275f\016\263=0\352\230\275\236J\214=\256\222\232=\334\325\302\274\265v#>\322\251\000>|\217\271<F\367\276\275\025[P=\353\352\023\275\277@n=\210\362\036=\304T\324\274\2425&=$6\n=\324A\251\274\211fh\2753Bk\275\233\272\223\275E\037\303\275\326\1774>\371\212D=\262NE\275\377\333I\275\020s\200\275\305\247)\276\2503`=\3749n;5\006@=\306\020$\274\327\005\201\2753\024\365<\277\344\231\275K\033e\275\236\241b<\0148\231=\234\357\216\273\025\253[:9\265\240<\267V)\275\027i\265=i\354?=\351wD>\036\366w=\314j\250\274fY\364=U\333K\275\302\2002\275n6\006\276\350\360\313\275\033\317\221=v\222\321=\257\177\376=\354B0\275\3518\025=\336JP\2744t;\275dz\024=\323\330,=?\227\317\275\261o!>@5\377<$\327W\274\215nU\275\357}\033=d\027\245<b\232\357\274g\246\010\276\215\235\316=DW\217\275\303[m\273\344\2267>\357\376\025>\235\030\264\275\273\273\260=\213\235\241=e\375\270<a\340\177\273\310\037\247=N^\271<\013\212\342\2737]\t\276\334,@\274C\225\270\275\3074\206=\316\025\266\273F\264\r\276u\216\312\275:\243\305\275\350\371\321\274\373\320\200\276\037\354k\275\312\332\024>UP\3558>\017\242\275\240\245\037\275ZC\016=\367\357==\251\332\202\274\266\300\r=\231\233(\275\306[\241=\341P\310\274\313\017\315\272\222a8=\024J\264<\005N2=\313\017\025\275\310|-\276\225-W<_\330-\275\343H\244=d\005\202=6\321\333=V\031\261\274\267\231\r\275 %\005>\340=R=\305\247\313=\331\253\200\274NmH=\346\232Z\275\226\206\010\275J\210\354:;\225\350\275\255\363\302=uT\351<J\272\010>\347\275u<\224C\306=7A\225\274\021\2111\273\252\377\016=\021\247)<M(.\276\321\3665\275E\241\341\275j\275\233=\276\347G=\304\376\247\274\367$`\274\314&D<\330vH=\370\226/>!\264{\274\306\320f= E\002>\257\210i\274\330\203m\275I\245\010\276\335h|\275\352W)<\364\027\031\275\352P\336\275b*\234\274\310\2057=\324\370\347\275\003\202\250=\303u\221<!p\036<\234\302\255=\017\353l\275P\222\247=f\007\270\2732\004\222=1\365n;\257\302\024=/\007\276=d\250\000\276\272\315\036>\202\242\326=w\313\002=\021V\325;\205\250n=\\\002\\=i^\353\275f\027I\276\006\270\336\274\037\225z<\272Z\247=\036\304\337=\005\013\256\275\221D4=\206\316\205:\230X\2439\244eo\275\004\264q=\321\001\364<\366A\301:9\233\252=R\241\275\275E\021\222\275L*m<\014\262\267\275P\316$\275J\344p\275\373\025\253=\202\005h\272HE\316\275\304IS=\231\004p<\251\021\251\274\277\252\262\275\203wH=\324U\006\276\341\321_\2740\020\377\272\364R\260\273\036c\005\276\206\362\301\275\347|\002=\005!\t\275F\306%\275E\376\035\275N\230\024\276\3253\326\274\016\242\027\275\"3)>F\377\311\275\340}\316\274\363\025;<\333\275r\274\342\214\304<N\017\342=\004\206\200\275\016\367\004=\324&\327\274\256\235\004\275c\374\262=\205\034\035;;I\246;\262+\376=\277\332\267\275\\\247g=\r\207\004=\300D\367\275\177v}=Fr%<\372\312+<\203\230\326=\347\346\351\275\320\237\301\274\343\274\266;\325\0103<\036\252\266=Q\334\300=\177C\275\275\0002\267\275\207U&=\344i\201=\262M\263;D/`\275\254\256\337\273\3206\252=\217\276\305=\351\220\032=\205\253B\275t\224\303\275$\335\230=\367P\301=i\246\021=p\250\347\273\335\354\010\276\325n\302=U\3449>O\"\030\276\206\nr\275\354KX\275\210\202><Y\202T;Q{4=N\365\022=\244o\222\275N \014>\266\023\000\275\372%\033\276G\031K<\027\203\266=\220C\215=c?\224\274;\023\323\275\355`\214;%9><8\372\242\274\373\014\n\276P\320\245;\367\300\007=\026\n\022\276\007,N=G\332p=\033E\265\274\201\300\275\275X\262\226\2741@f<T;i=\272\245\346=\214\215\212\275\313\030E\276\243wF\272\330\030\374<2\022%>}\251\315\275\372\020\211=\247\264F\273\321\t\006\275\3455>=C\335\277\275\373\3477\2744i8\275\311\302\006\272\207\334\023\275\r5\001=\234u\305=\354\317!=\270Yz<\311\225\214\274\342j\263=\224\346\374\275<\327r=!p\247\273V[\201\274y\320\024\275\370\250\021>\363T\222<\376\314\2369\245G@=P0[;\362\222\366\274K\277[>^\364\200\275E\362\247\274\nQ\350=\304\305#>0\236\317=\205\022\236\275\177j\217<\374\350\246<H\243\334\275\247\377\202>\356\263I<+\214Y>\257\373\312\273\373\003Y\274\205\225\311\275\210\213\376\274 \333\374\272\351T\231=\274+R\275\3050\003\275,\023\353\275\235\367\374<I\257\026\275\t\317\315\275\027\243\212\273A?\222=E\211\327=\323\ry=\342\273\022\275\264\260\351={~\302=\254\247\226\275\203I\210\275\307V\265\274\321>\033\276\240\363\027=n\214\"\276i\016\330\275\210\026\036=Ng\204<j\'`\2757\376[\274\313z\276\275;WO\276\234M\261\275w\331\266<+`\271=j\257\252=\327\330\026=\n \247=\031\342)>\305\372\326<\374\031\231\275r?\257\275\220g!\275\006U\331\274\243\016Y=\257\177@>\257\0345=.N\300\275\225\2754\275`\200\014\2759\315\260\275bX\302=\347\336@\275\223\333\004<\211\357\214<AD\363\275\314.C\274\252\313d\275\003\031\016\276{Z\344\275~\250\254=y]\375\274h\203\206\275$\021G\272\250\236 \275\331|\024\275\356aU\273\270\255\310=F\327\230\275\342\300\232\274\233\307~=\344)\014=i\200\234=\240+\337<\365P\321<\252|;=\265\266G\274\277\371\356<\032\031\212=\340\311#\275\325\262\021=L\224\347=\360\007,\273\371\225\'=\241eq\275\360\353\002\2767\200\222=\347\027[\276\317\267\276=\307.\032\275\027\376\200<6\003]=\3643\312\275U_\211\274\365!\013\275\005\234`>\242\216\214\275\177\220v\275\3258\251<\260\207\273=e\246\373\273\036\010\275\275%I\250=\325\3309=\022\222I\275}\201\027>7\323\"\273\213\274n<\347\035^=\003\300X=\3069)>\222\312r=+\210\021=4>>\275\227\036\333=\277\270Y\275\035\267\204\274n9\002\274\230\\\276=\360Z\322\275\223j\251\2755k!= \3741\275\n\212\027\276\211K\227=8\210\247<l\333s\275\203\334\026<\246^j\274\347\020\265=\353\263\335\275\020\272\340=\321\244\200<\304\304\211=\0240\244\274k\324\330\275;\304\024=\022{\244=/\200\226=\247\315[=\210\275\263=:\317l\275`p8<\016\236\361\275\331\264\214\273b\251\352<\371H\027<\277;\031=)a\021=\261\321\366\272Z\352\310<L\206o>\\\032\'>\200\255\201:n\253\354<\325,\264:\246\001\254\275u\344\315=\342\227D\272V\360\355;\373\200\362\275Z3B\275\212\210\211\274O\351\205\274Y\203\325\275\250\361\036\2751\010\202\275\357o\232<\003_L\274\364\301\342\275H\006+=\231\275\217\275\355\026\267\274c\270\177=o\330h<!,\220\275\373]T>\022$X\275}\337\340\274\241\266\017>\013U\311=\230a\007<p\256\232\275\362\347\201=\315\303@;\006\305\036\276\351\257\215<Z\231v=\373B\364\274\253\244\306\275\242v\337\275z(O\275> L=\240\214\205=\331\177\222<i\366\222=\327\210A\275]\340\253\275\267T\273\271\315\277\261\275\262\253(\275{*\232=\177\267\000\276\300\363\323\275\310\354Y<\356\0270\275:!\225\274(\216\215=\\\344O=t6\367\275\177\364\330<0\354\346\275\252\256\002\274\326\2074=\350\211\321\274\n\023\027\275\t\344\t\276\274\357\336\274\303\\2\275\005y\036\275\035\230\321=v\241#>tf\311\275d\234g=\264.\372<\321\271\273\274\037<\325\275\2600<\275D|\221;\034BS\275\351\212\221=\242N\315<\004\244A\275\221\033\013=\336\254\336\275\272\220D\276&\035\355\275\274\310\276\273\245\002C\275EX\326\275n\330&=\363\352\014>0\337\302<\343\226S=\230-x\275^\331,\275\311\322k\275\332\n\226\273\307\026\n\275\t\344\014\276\307\362\337\2751~F\273\001X\210\275[\035\337<3\3341=\377\242\003>Z(\255=\370\345\025=$a\233\275sC\265\275\236\356:\275\n\n\327=\356\261\223\273Xc\026\276\247 \346=\r\033\236=\336]\275<\355\331\300\275SZ\346=N_\202=\230U\342\274_\034\006>\\M5\275n\323\266:{\177\024\276\001O\211\275\177q\304=%\206\021\274\350\260\272=\340\305\021>\321\324\027>\3243\334\275\246w\273=\242\231\030=\353\344\240<\340\037\036\276jt\220=\t4\245=$\366\207=\344\207\317\275Q\206\364<\310\336\266=8E\361\274\237\032\314=z\337\245\275=g\266=\243l\247:>\037\265\274FK\205\275y\007\234\275\266(o=A\371\021\275TSY<SdQ\275\250[\260\273\334\016\200\274Dl\252=\270\260\000\276?a\200\274\233\014\206\2743\024\031\276\344^\223\273\331\375\206=\tRZ\275\341;\260\275\235_\242=\356h\036\275?\t`=\250\354I\275\230@\310\275\005\031\273=\334}\252\275\005\177`\274\242p1\275\365d\347=\334SL\274\360\252\371\275\374\331\203\275\366\r\211\274u\364\264\274u~\010\276\305\214:=\031\035\300\274K2\213=O\245\374\274\270\200\250=\316\225\263\275\254\010\216=\0130:\276\226\017\360=\003PX\274]\275\344=q9\246\275qJK=\322\225\010\276\326\230\004=z:L\275\271)\206<\356\003^\275*8`\275\"\r\310\2754\224\"\276\247N6\275\242{\261=\312\001b<},\356\275\2732U< R\326\275\334\027\201;0\255\004>P\341\225=\223bR\275\255\016\256=\334\020\244\274\256\364\366\275\n\005{\275(\002\341\275`1T\275\006\244\365<\206N\030\273hk\322\275\245;\231\274T\363\255=\315T\n<^\036\320=\306#\336;\347\227\021>G>\347\273\257\376 =\330A\355<\2444\262\273\326c)\276\003HC\276y\346\004<\017\376\333=\214p\376\274cqH\275&\327\027\276\351\000B=\260T\014=\376o>\275p\202\244;d\374\230<<[3\276\253\207\314=\357|\247\275\224\005!=\374\343\201\274\310\253\366=\031J\245=\252\302\251;\351\323\214=\367\320\000>\354\333\204\275\215\022\254=\333\367\013>\354k\002=\226\312\000>\301L\253=\252@\241\273\370\356F\275\263\352\272\271\357\311\370<\353C\002=8\274\336\274\\\003~\275\320\317q=\006\311x:\370\317L\274L\254\346\274uc\201\273\350--\274\276c\360\273N\026o<\372\240\375\274\214;\204\275 \014\364=r\201G\275\350B\003>\252D\021>ZE\274=\340\315k=-\036\037=Om*\275\353\211\033=\316\276\220\275BU8\275\205\242f=\314`\356\275\025,\031\276\220r\033\274E\356P\276\225\243`\272\347\257\200\275\263\236\357<5n\237\275A=\021>\330\211i=\327!j<>\024=\275\365\006\244\274\304\367\001\274\325?\036\275\251o\261\275c\355g=\205\311\201<2m\247<XrQ\275C\324\022\274\337\365\016=\361U\336=\365\3222=\253\366\\;>\027\275<$R\014\274\223\327\177<fP\212\274\264\232F>b)\211\275\347\364\364\275\313a\004>p\t\304=\326@\242;\246y:\275\230pW:\322\372\002\275=\n\032=\204\276\254\2756\276J\275\224\252x<&\310\014>\020\277\203\275{(?\275\260\246\256\275\227On:D\036\021;\316&6\276\275\231\t\275\275q\321=R\202\264\274\024\022\024\276\237\255\206=\014b\006\276\236\014\314\275\267\232\300=\307{\036=)hj=C\207\244\275v\236/\275\233\033K;J\262\030\276\317(\262=\317\314\277\275E\261\274<u\312\013\275\354V\255\275\004\205$>\244\t\005\275%\245O\275\367K\337\2750B\313\275\336\254\336=\345\312\332<\257\325\000\275\321>\272\275D7\002=S\250\016\276`8N\275\322f\270=p\370$\275\037\350\r\2759\315\336<\t\342\022\275\223\024F>\321\266T\275\261l:\274b\265E\276\245\223\206<\310\251o\273[1t\274\202\352)\275\nK\'=\270T^\274\264;\322\275}u\n=-\352\\=\004\344o<\365\331\320=\026\"m=\244\033\336<e\263q\274\213\327\025\275\013\203\267<\022\027\017>\331\330\t\275\013\331\225=\303E\200\275\030\375\230=\027T1>\005\000\304\275\353\262b=\023\266Z\275Y&\014\276m\006%=\004\037\334\273\336\003\265:xH\344\274D\244\320\2750S\000<\265C\342\275q/\217\275\010\025x=\204s\003\275\251\213\031\276\301y\014\275\336\372[=\201\213\272\274\310\020\324\2752\266d\275W\242_=\362\372\037\272w|\235=\344\322\213<\246\222\207\275\232\3561\274bx\302=+\210\243=e4\375\2758\355\230\275I\323Z\275\316\215o\275\266\027\023=\300\267\201\275K6\314=]\305\022=\n\030G\275\002[\014\276Y\205\001>\320t\321=\242\351\277;2\351\"\2769tS\275P,H=\263\356\022>r\200\014\276\273}H\275,\351\341\274\302\272\274=\212{y\273\302\344\027\275\027W\021\274\237\223\322<\332\021\023\276\030$\224\275\022\000t\275\037pp\274+\305\302<\230y\321\275\334\352\252=\245\312\244=\265[t=L\236-\275D\356\317=\326O5\276\211\215q\275\007\251\020\276\236\260\257<nS\324=\370\336+=2\025\242=\356\230\205\275(C\377<\177\212j=\3214E<N\211F\274A\333\267=\270\324P=gBW=s\334\302=i\227\256\273\207k+=]\211\215\275\323Q\n>\350|\277\274\007\307\373=\263\370E=\002\317\241\275\3279\343;\263\032#\275\222cs\275\343B\224=\231\'\374<BR\030\276\032\272\241\275\376\316H\275\025\324\377\275\ty%<\243\305\303\275\317\236\224=YX\023\275\326\206\366<\237)7\275(p\224\275\255\264\200\275\325QC;w\032\035>\275\204~\274$\377\006\276{\377J=\006]\347\275\3674i\274\355x5=+\334J=\262\336->2\344\354;u\230<=\013\356y=\300\254K=\265\347]=a\005\366\275\211\014\221<p\214\010=\2072\322=\272%\010\274,b\016;\277\222\256=O\005\354<\270\341\213\275I\025\251\275\375\243.\275-\3669\276!\\P\275\256\261\0259}\2267=Y\231C\275\203\364\265\272!\330\252;\340\014\315=\334\027\225=x\037\213\274\204\201\236<\224\036\322<\211\226\221\275\263q\234=)p\370<\203\"F=^\350\313\275\026y\265\275\270ax=V68\272\373<\276\274z\005\311=\330:l\275$-\346=S\311\004\275\251\263\341\275M\342\372=\277\201\370=\026\370\263<\225z\204=\212\314\027<A)\272=TL\240=\244\253+:\007\322\243=\025x\264\275e\366\313<\241\334\227\275\202R\340\274\312\261a\275\230S;=#W`\275\302\270T\275J\023E<\'Gj=e\361\236\275\026e7=\016\321\244=\317,\005\276\265&\357\274\355\243\324=\252\020l\276n\032B\276\"\336h\274X\007X=\256]\334\274K\014\017=Y6\n\274-/A\275\003\032e\275\277i\221\274\241m\r\275f\253)\273<\332\324\274I|\220=\222>\230\275L\301x<fr\224=O\030\361=\302\017\002>\031O6\271\020<\214\275\273{\r\274K\333\n\276\230\230c=\237\002M=$\267\206\273r\362\206<\250L\025;Q\346\312<\'O\311\275\312\241\n\276{\257\224=\330;\221=\357\250\372=\360\301;>\251v\224\275 j2<\030\261^\275:\352\261=]\030$\276\333\254\256=5u\372<\010\325\257\275\237\307\001>`\377s\273\235\234\024=\336\331\313\274\265`\202==\022\271=\350\335\345=\245\3446>3\237j\275*\304\332<\350\230\t\276\252\224\222\274\243K.\275\252\214\251\275\227\2001\276\010\322/\275K\232\214;\360\030\247\274\370w$\275\007\201^\275\305*\001=\310\207\363\274c\353;\275\340(\r=\205\376d\275\372\021\210<+\327\221=\362\034\022\275\377\253\307\275M\237\262<O\204\216=\372\357\035\275\026\364\210\275M\001\036>H-1>\350\025\226\275\247P\031>\301f\372\275\246\220u\273\037\033(=\3667\030\275eG\253=\"Fb=\317wp<M)\006=\363\333\325\275\367R\313\275\335\266\300=\331\306\267=\305\346V=\277\333\372\274\316&;>\347\356\250<`D\n\276\'6*\274\026cg\275\375DX=\005\237\310\2751\314\203<}N\357\274\355\320\214\273\006\322\006=\035\235&\272$\202\247=\376\354)=m\021\014=}(B;bd\354\275.\177\227=5$\357\273\336\301\343;\250\325\022\276\376<\242;1\246\200=Q\236\323\2738\352&\276\030Qc\274T\301\324\275<\213\000\2763\316%\275\372^\232<4\233\265\275\031s\365<e\241\214\274U\271\262\274\241\021\327\274lg \275\375\277\201\275\211\360<<\233\025\226\275*,\275<\177[\007\275U\362J=\002{\256=\224\310\205\274\241\354\263\274Z\326\343\275\356j\227\275\267\254\230\275\372\347\001<}k\315\275\210U\374={e\327\274\305\356\017=\320$U\275qd\2107\'^z\274 \027\363=\253\034\302=xV\037\275d}\367;s\026\201=\231\377\216\275*\322\013\276\255W\367\274\311\334\235\2751\037[<Af\311<t{Z=,\004\226<\\\316\366=\204%\211\275\335\225\032=\276Sk\273\316\336\312\275\020K]>\0342\254\274\250G\233\274\275,8\276\266\352\216\275\037\357;\275\233\370Q=\260\005\177\276\303\\/\276h\262\035>!\372O=Y\271\'\275f\366\207=\355\304\326\2753\027\265;\0031A;\226\332\234\275s\255\r=\231\2515\275\233\202\215;lg>\274\302J,\275\324\'Q\276i\371\273\275l\177P=\037\262n<\215\377>\275cq\263<0\350\313\275\214\3607>1\345\210\275\272\024{=\340c\016\275(\223\241\275\305\220\t=`\362\">\016\271\243=\024\261\332<58Z=\275\031%>\312\235\025\276]\215\244=\014g\372<\370\200\327\274{\360\020=\254\361\250\2745\021\024\275\346\017q\275:\327b\275\220\272\222\275\231]q=\362\325I<\2504E\274\022\330n<\203\352\275=z \247=\227\002\217\275M\202\034>\367\035\251=\352\263\333=L3e:\022y\256<\037\231\311=\250\240\220\274\017\205\315\274\276zg=\227$\004=c\t\342=\212\3242\275\007\240\257\275n\215\321\275\305\365T=Ta\022\273\347\301\211=\025\026\341;8\257\013=\275\257\255=\243L\023=\325\024\364\275`\355\205=G\347R\275zq\343\275&yg\274\261\260\342<\225\365\024=\026\213\243=\026\242\275\274\374a\026\276&z9\275\224\037\260\275\204b-<\321\313\3279\001m\360\275\006\361\334<\355\207\240;\2059Y\275:R\036\276\374\022\234\275vL\'\276\343\244\013\275\266\363\253\275\007\201\007\274\257\005\312<\265R\017\276\356\010\313\275\252\200\262\274\330\253\274:\364\247\303=`K\232\274\324\357[>\242\220\316\273\306L\243\275\311Z\233=X\034\334=\373X/<PX\2056\263d\"\276\317\311\272\275\347\262\t\276\262\031\017\273h\302\024\276\221\231\274\275p\302\t<\337MK=K\3718>\nq\345={\004\360=\020\023\030==\224\320\275\326\217z\274\345*\030=X]8\275_\217\302<\262\336\226=\320\2708\273\025\315\207\275\202\320?>_!\234=O\374\236\273Cxn\274\252g\241<\362k\231\275E\024\206\274\023*\227=\266\031\274=\']2\273\257U\330\273,*\357=\307\371)=\266mK\275\230.\201\274\377\254\264\274\204\231I\275\314]\223\274T\3364=\014\361w<\240\212z={\335\004\275\210\361\375\275\022\\\227<M\211\275\274`\020\026<\271\032d<\035\3473\276\241\212\266=\310\276\232=u\261\263\275l\tC=-1\241\275\3616.=\"6\251\275\005o\366\274\232DM<\256\301N=\267O\036=$\034\302<\r\230\252\2746\356\347\274\325\\\332=\230\030\220\273\252A@=\004\341q<W\273\006\275\340\203\237\275GQ\365\273\3278\033<8\301\202>/F,=g-\312\275\344g\373\275\027t,\276\013\003\321=m\264\330\274\302=\234\274\2118\327=\257X,\276\232\374\345\275\331\252K=+\320d=S\233\227=\242\002\254=\315\263o=j\356`=\305\313\212\275\315\261\305\273\331\276\303\275\255C\303\275Q\'\036\275\301=\315<\323D\r=\225\006\352=t\245\203=\3530{\275\035\302\351=\261<\373\274|\327|\275t\266\352<\220L\337=\311\'\273\275\324\337\317<\314|\001\275\325\344\201\275p;\300\273\331+\230\272\026e\217<\013\354\233\274E\372G\275\026\006\252\275\240\303\024\276\2247\360\275\216\204\234<\026\010f\275L)F\274\033\351\236=\247\314y=b\207`\274M\355\334=\373_\204=KO\373<{_\013>8K<<\360\035\251\275B\211\340=Z\242\230=\tp\373\275\251QU\275\340#I=\016\033\371\275\r+\342=\214\221A=\306 \036\275\310\031\222=9\214!\276\334\337f=P\212\273\275\013\030z<;C\252\274\255\255\304\275_L\005=\242\254L\275\346\211M<*\343\346\275$c\206=\024\202\034>\242<\276\274s\234`\275\014S\225\275\006\364\372<\300\240\004\276\204\004\300\275\t\3314<9\tl=\326\037E=\025\034?<e\204\035\275\366d\224<Th\240\275zN\223=z\301\303\275\205w\326=\233N\246\273R\354\205\275U\203\343=\"\372%=\250\216\331\274(\254\337\275q%)>+\374~\275\\C\002\276\233\252\216\275Ia\274\275c\335I\275G\316\215=\344\243\255\275_\362\\\275\314jE\275\310J\255=\200=\'=g\254q\276\2764.\275\200\340\325=<\017\311\274\341\326\217\275\033\226\252\275\313\300\n\274V\013v\275\310\273\233<=\334`\275\247\260r=\343A8>\021\3129\274\352\237S\275\256~\232=X\024\211=\276\231\251<\314\214w\275\320\366\237=\307|J>%\335F<\271\323\366=\333\377\206\275bo\215\274\272\210\240\275C\272\221=\235\306\007>x\241N=2\304\032>`=\310\273w9\377;\237\2139<*\306]\275v\312\245\275C~#\275\nV\302\274\260\254+\275\350\016\027\275\255\274\222\2743\221\214\275\247\3646\275\003\022\004=\320\265\025=L\313\212\275\305aQ\275VbN\275\373\205\226;\037\313M=\315\332\332\275lS\327\274&\327\316\274\315\2058\275-it>5\277#=K\260\323\275O\266\361;{\214\354\273!GS=\362\361\210\275\205z\207=^\315\277\275&\226\232=q\020\004\275\323\\@\2758\t\250=z\265\202\275\301\351\031\275\343f\211\275\377\347d\275,\035\034\275\014\247\033\276\2237+\275?\257[<\r*\027\275\372\037\227\274\000\027\013;n$\227<9\372W\275\252\006#<\006e\035\276\231\023\035>x\3102\274\rzt\275\256o\335=\220\330\337\275<\224H=\004>\222\275\242F\005>\r\230F\275r\002\030\276\\\2049=\013Z\t\2754w\305<L\245\020\275ism=\337\315\033\275\377\317\252=~^\360\275\260\373\361\274\354\361\210\274\022\240\270=\316x\253\275\332E\032=\261\177\014>!\265\341;K\222\366;\251s\240\274\023\367\003\276\254\260\204=\370\006v=\266\310(=\005\244\340=$.\346\275\256dw\275CE\316\275o\346\364\275}\363l\2741\324\235\275\231~\227\272\363\023\325=>\266\254=d\257\210=5G\275\275\253E\374\275&\271\027\275n\212w\275\212\212D<\351\312L=r|\257\275\225$\007=@\004P>\364f\300\275\022I\217=\014\235]\273n\016\361=\263\237N<\021X\231=\227\032\031>\256\n\003\275\263\374\372=x\363\237\275)C,\274yJb=\031\333\367\275\272\334\364;\345\362\250\274}h\362<\305\003\210<\230\004\241\275t\310b\274\ti\215\275\376\3026\274\333\203\232=7\262\267<\226>\261=Nc\270=\350]\027\275!`\014\276\276dP=>\\\267\275\267\357\231\275\356\375\216\275\256K\344;\237M\252\274\307*\247\275\334\002\304< \341\001\2769\214\005>\320\254\000\2741\024w<\220\227\342=\351c\305\275}Qx;n\t\233\274\360\261\200\275\342\255u=P\267\376<H$T=g39>\345a\271\275a\320\022={\265\226\275\223X\007\276\265\023\316=\013\031\027\275\261k\211\274\365\017\r=&\001\307\275 dC>>\001(\275\302r\034=\024a\026<\035=\030\275=\303a=\001P\300\274\201\371*>\246\275\016>\207\363C;a0\252\2757\010\244=\315\306\343\275\376n\202<nSs=\272g\273=\215\207\244=\343\360\212=\215=\256=\202\204\304\274[\370E>\235\213\020\274\335\007\270\272\002X\243=Mjl=jP\013>\256Fa\275\375\331\r>g]\030\276I\364\236=\221hw=\245\003 =\356Z9>\032\253m=R\271\240\275jZ\022=\312\336\267<\260a\004\275c\250\003\276n\003\334\274\301\315\005=\247\025\372<\231\364\213=\320\342\366;\317\343\203=\302\337I\274\350\020\261\275.\001!=>&\375<\215\005j\275\204\265\220=\304\326\355<\344`:=SL\345\275H\324\215=0H\010\2751\360\277\272\200M\305<\n\305@=\212K\247;=\230\004>N\026\312;\271\351\271\275\265Q\246\274x\253M\274\037\230\207\275M$\273\274O\234\023=\361\217\344\275\226\023\207\275\372\336\032>\001p\254=\275\233%\2753\365A>\241\367\216<\\\233\202=\211H\236<\361C5\275\264\257\234\274\n\256\024\275\007\2768=\211\264\260=i\240\302\275x\020]=Y\376\311<\323\205\210=\227`X\275\210\372\250\275\223\347\361=\275R<\2759r\225=\3577m=d\355\006\276-\240\332\272\305\225\342=Q\270\352\275@\316\006=\337\203\356\274\347+\226=QK\207=y\303J=\003\r*\275OLF\275@\206\263\275X\337\243\275\224M\234;\032V\n=\027^\203<\325>\212=\356\336\246\275\226\307\243\274\322\227\003>\nlT:>\213\254<s\247X\275\035$\331\274\232\201\252\274O\025\004= \312\224<\002\035\002>\255\036\006>\255\020\254\275\317\213y\275Tu\255\272M\265U>:*\221<\003\"\301\275\030\244\246\275\320\327\003\2750\025\342\275\321S\304\275\343\3012\275cZ\237<\241\211\201=\222\017\276\275\320\235+>\221=\021=\031\351>\275\310\202,=\376\205\255\274E\026\367;\302\177\304\275\'.\027\275\345og\275\004`F;\255\377x\2755\017\301=\347\376\036>\324\375\254=\273T\226\275\272\020K=[\013\250\275E\226\345\275>\036\023\276\236\300J\276\303\022\324<\300\\m<\302+r=Sic=\277\231\342\274vy\326;\3315\340=\323\014\n\275\360\367\260\275\262Y\205\275EQ8=g$\335\275\2424\220\275\360h$\276\202g)\274\004\354o<6\366\347<\252I\002\276\237+\313=YV\241\275\206\037\270\275\215\272\033\276?s\351=)U\251=gGE\275\302n\003\275\371\013v=\2777\221\274%\273\n\276\374\301\362=r?U\275\215\207\355=\325\235x\275x\323s=Y\004\202\275*>\245\275\306\225F=\221\'\313=\312\366f\275$\253\213\275\202\005\t\275\313\360\017\274\006\277;=\202\325\001=\233\331\340\275\002\334\206\275\270=\331=\201~\013=P\224*\275\331\000x=\320]\217=\221\230\237\275\301P\255\275-}\307=\331\204\332=\241k\257=\275\006%>\233BS\2757\257\210=rf\226=\036\004\211=\"\334\316=O\023\247\275\n[\320\274\2317,\275\326\303i\275\3773\227=\212\"!\275\212[\314< \"%<\014\243&=|\361\336<\036x\323\274\204Q)>q/\'\274!\3641\2750\014{\275F\356\025\275hX\r>\331\371\341<\023\2132\275\212~\332=DC\237\275\276Y\313=\261\315I=\030 <=\360\"\345=\215\252\247=5jp\275\007?\257<\032\027e=s\252\256=\272\227\033\276-;\205\275\r7\207=\336*I\274\367\257\356\275\024\376\344\275s\233q=a!:>\342T>\274{W\r\274L\241\262=\255\024\362;\310\016\264\275\324\217\365\275\001$K<\337!r=6|\234=\334\003\201\273\203TG\276\010w\326\275\275\322\230<\213\357\036\276L4\210\274\253\254\317\275w^\321=\365\345)\276\233\3354=\014j\240\275\221]\r>IU\\\274\254\314\272<\3427\260=\341\340\231\275\213\257\204=\264\303%\275\200\2002\275\307^\275=\3533\333\274\323\237+<\0252\037=@\277\013\275!J\003\275\263\241\256=\264Z\327=\"$\224\274\267W\345:\311&\304=F\353\326\275\t\277\023\276\"\344\211=\234\351\347;\031\014K\275\275Q\204=\027\233\231=\007\203B;\213\035\310\271\342\266\030>Y\321\264<B%i=\t\331p=\367\372!\276)\326_\275n\374`\275\205\342\214;f<u\275\207\353\250=\266\2610=^R8\274\020&\317=\304\253\361\274A\213\202=#\216\244\275$\331\352=\000\037\242=9\335\251\275/;\005>\377\032\207<\035aC=\\!n=\344e\370\275k\3744=\272{\250\274\314Op=\200`\304\274\274p{=w(\267\275\006\326\245=\357\375\021>\003k\241\274\216\037\222\275\324\3017>\377\002 >m\277\r=\305\261.\274\245;$\275\333\370\304=\266\n\336\275F}]\275r\317\226=dVQ=Lu\337;\035\247\340<\320\232\205\275{\354\241=\014\363\233\275R\035C=e\222\336\274\0303\236\274\275\004V\275\334\337\002>G\344$=\265\267:=\301\342\017>|@3=\035\340\200<\323\005\344<\223%\311=C\260\007>1G\255\274r\007\372\274\354\354j<\252M\033\275\n\254M\275-\212\017\274\2032\026>\005\322\345<\230\356g\275Q?f\275\347\332+\275\264\215m\2750\037\240\274V\223\203\274\321\266\n\275\240RA=!B\021>}\311\301=\031\325\004\273\021\254\300=\270\203\272=\327\260\021>\236\357;\275\017\213\330\275.\024\343\275U\026\377\274\271t*\275\024%\030\275\020\240\326<\n\217!\275\324wT\275\210\257\034\274[\273\207\275\030\371(=\346\214\256\274\257a\216<\231\2543\274&\256\262=.\351\221\275\003\316\266;9\003\310\274\2226P=\302b\313\273\2677\335<\32493>eYt<5xT\275\007JT\275\306s\030=^\346o=\200\265~=\227\271~\275R\346A=\261\270$\275ui\225=\360\247k<\245\232Q=X\317\217;.\n\250<*\337\\<\t\016\312\275\001\306x=N\t[\275\314dS=&\343\246\274\301\313*\275k&\335=\010t\006\275B\205I>\251B\224\274he\344\275\037\000\025=\220z\255\276(\233\016\276\224\237&\274K\272\004\275\263;P=\313\315)\276\035o\177=\317\t\002\275T\177\260\273\256\026\221\274\356\357\226=\005\367\326=[\0175\275?]h\274-.\304\273\367\007K\275q\221=<H\241\030\276\337\225\030=\301V\323\275V\305W\275\355\371\341=t\213\027>^\022L\273H\nU\275}]\254\275\0309\021\275Uw\030>O4k<Q\316t\275\317\334\237\275\274I\317\275\352\363\037=\253\340`;\344z\235<\236f\203\274G\226\277\2753\241\025>\255\177\010\276\236a\367=\033hl\275G\325\005\275\332\270==W\376\225\275\317%\246\2732\275\022=anu\274HE\321<xh!<\354\352\204\275\260\243R\275\035\325\323=\350\325\234<\305\331(\274\307\230\251=\371\034\265\274\201\360\253=\327Z\253\2756NJ=>A\222=\224\037w\275\030\305\277\275\177\325\332\274\256\3136\275s8l=UjT9 \201\316\275\365\306\002>\273;D\274\036\'\006=\244ZL:[\340\275=\207\273\344;\031\215\242<\315\002\203=\216\225\223\2753\247O=>\315\344\275\033\314\261\274\327!\316\275\002\006\"\2762V\375\275\340\001&=\214\014\273\274\273\231\323\274/\210\266=\213\005\007<}\020w>\3600\222\275\'\"\003\276\264\341\373\274\342\t\013\276!\306\022=v\320\202\272\250%\205\275~\024\210=\230K\242=\"\242\336=\316bb=\206Y\261=E\226\204\2730\\\202=h+\320=\263m\332\2755Xk\274\200\031\033=\240\000\254\275\207\034\267\274\227\277\006\276\333!\247\275cc\030=+\206\006\275\322\324\020=\030s\207\274z\244\350<\034\310\362\274\261\255Q\275q\353\014\274\233o{=#\317/=\302D\202=s\203\263\274\237\032\217\275}N\331\275\324P~\274\3542\205<\273f\360<\356\233N=\032!\006>\032\373%\274\237|x=`\022\210\274\230>=\276\207\300\000>\256\266\204<\206\255\013\273\327\031\250\275BN\322=\332\236c\275/]<<\346O\312=\237\326\371\274\334|-\275\313\342\350\275\\\351\320\275\323\312\022<&\341:=\006>!<\302!\303<l\333t=W\217|=\006\260\221\276\300M\253\275\310\257\236\275\241\271Z>\255\256\270\273\373\277==\212\361\274\275L\352=\275\312\216\t\275\377\307\255\275E\240\260\275\n\345\211\275\353c\335\275\365\207W=V\336c=\266\016\r=(.\021=\373J\021\273\265r\254<\225o\261=\232\343G=\274\370\007>\362q=\271;$\254=\\\033\">A\255\337;\302\rK=\016\346\356=\325\271\326<\260)\034\275B\355\233<*\354\211\274\323>\203\275c\240\351\275{\206\021>\352\237\036\2756(Y=8\310\226=\202\227\002\275\206\250D=!>\001\276\253\033I=\242\206&<\342\217\031\276\177\226+\276\207\373\213<\247\217\365\274_\305\350=.\355\250\273h\252\014=\341M\272\275\201\014\273\273\344R\341=W\250H<\275\326\021<\017\314I>\261W\372;\226\037;\274a1\002\2758\'\332\275\025\313\340=\307*\027\276\261t@=\372\220\034\274\316\260N=&\234\367=\206\2344=\361\025T\274<9\255\275AHm\275\377\221\014<\311\243\245\2745$\211=M\211\252=,#\255\274H\326_\275\336\367X=\334\255O\275\340\330\306\275\260\236H\274-\360.=\307&\305\275\251A\305\274\301\250#\276\204 \367\275\273\263\205=\3450\r=\020\315\334=c4a\275\337\254\342<\2779\373\275\245R\244<\221\345\356\274i\034\202=S\355\030\276^S\031\273\030@==?\355\006=\315<\235=8I\003=\034Y\004=\2375!=\313\230\224=\370U\024\276\344\t\033\276\230\225\276\275\364jT\275\370w}\275\n3\362;]/\366<\\\372\266=\2152I\275IBd=\025\255\245=Bl\252\275\302~\311\274\232rD\275\030\n\r\276/\247l\274\313\207\026>\027\371a\275\302\3334=\306\211\022\276bco<\264\366\215\275\213\252\333\274\302>\032\273\350}\275=n\334w=m\307\002\275[\031\237=N\026G=Ok7\275\320\007F=\t\326\354:\342\253\333\272?\327\201\275\353\016\220=\245\324\014\276\207\327\030>\214\023\365<9\303U\275\r\333o\275l2\210\273,Jo\275\234\206\204=\320\004\300<o\351\371\274N}\303<[\345\273\275}\214\264=\267\207\310\274\350\262\351=a\246.<\313\2677\274\366\021w\274\001\002\256\274\261\226\230;6\n\204=)\347\033\2748\3530=\313NM\276\022\360\216<\340n\365=\004l\004\276\310\270\215=m\333s=\207\244\276\273\t\211\252<hw\312\275\311\217\222=R\347S=\014\232*\275\302\265\001\276\236\030\234<?\\8=\343\323}\275\336\013T=(8\020\275^A\224\274\255k\254=N\377\326<\220:&=%wh<_\316\002>!\3272\274R(]\274\233\262\225={\\+\276\205\264\002=^O/\276\304\347\374\273\203\303>\275\272U\016=QqZ\275\361\347\021>\222y\225\274\250\325\256=<\227U=\230\200\330;\312m/=\321\254\220\275P\031;\275\261\305\220=\210\237x\275|\321\r=\244\303\322=#v\375\274\004\376\002\275\234\325\224\275\276;\253<\022\325\234=`,\035=\366\313\030=\014\227\210\275\361j\036=\'\n\207<9,u\275\207\034\371\275\335\203\'>\352\377\240=\216\310\026\275M\221?=\363\325==\347@V\276\362\n%\276\020\242\242\275,\316\213\274\251q\025\276\013\033\003\275\177S\001\276\223\343\257\275CK\230=D)\373<R\236\251=7\037\204<v\207\217\275|F\">\277>\026<\225\330\217\274\235\327\222\275\335\002\346\273NTP=Uet\275\275\034\355=O\230\216\275s\225\276\275\273\271\212<\035\276\330\274\r4\331=\275\n&\275\307P\346;U\234\251\275\230\270\255\275\207\027\206\275\013\211\375\275$i\261\275\264\321L\275Uu\205=\022\362\036;\276d\034=T\300\025\276\373~\014<\364D\365\275\2761\n=\261\344u>V\024\213=\206\037\200\275{\246\273\275\313\201\232\275\002\001?>r\0101=IHs\274\305QE=\373+\300=1\214O=\261:\326=\275-\300=\337/\274\2751jZ=J\311\017\275h\304N\276oQ\312=\226\234[<\3409\353=\234}9:a1\256\275g\020\356\275d\006\356\271v\230M=\245\305\023=k\312j=Ry\301\274>%\023=n\373j=\002s\212=,\253 =\032\336\213\276[T\002>s\267/<\266\'\216<}g\216\275|\254\017\274\354\236\251=~]\'=J\224\205\275\010p!=\026$\273<\030P\235\273\363\234<=\315\305n\275\354Nv=\034M\263=\345\303\360=\354<\227=}@\022=\241\260\346\275\251\376e\275\034\002\272=8\324X=u\372\341;G\310\200\276D\021;\273\035\320\214\275\265T\357=\r>/<+A\253=_\265\007\274\327p\n>+\246\370\273\272\021\003>\241\243\221<\036Wy=(D\n\276+s\013\275\255\272\252\275\354\326\305\274EJ\306\274\257\326>\275\310\313\032=\276_\225\2758#\224=\213H\272<\321\360\215\275r\324x<\337i\277=\363\2144\274J%\035=!\332\232=wU\310\2744o\252\275\205a&<~\023S=\257\222\254\275\020\265\231\274\275\210\271\274j\027\224<\360 \267\274\374\257\241\275\177\321\030\275B?>\275\024\037n\275\227$\"<\330d\304<N@\305=8\264\327=\310\247\326=G\223,<\236I\000>\030\200\305=\207\006\270\274\371\340\376\275\031\234\317=&Z\000\275\316X\261=\270W3=\330.7\276=I\366=\217z\327\275\036\237?\2751\350/\274b\232\252\275\'\364\016\276U\233\351\275\002\375\001=\234\325\254\275\306\017\311\275\270\014\000\274X\010E\276b;e\275\325\025g\273BL\023<7\206\371\273o\242\336<\352\2050=9\211\022=\312\347I\275\265V\235\274\266m\322\275\205^+\275\2341\311\275\356\226\034\275\357\254k;\205\010a\275\260\262\347=K\270\023\275P\366\350\273*\265\276\274\007@\r>\320\244\370\274\331#\245<\234\365d\274\265&\317\275<\371\216\275D\221^:\306u\215=\t8\242=\324\2030\276\253\234\023\275 ~\233=\002H\270<\341\214\254<\024\022\320\273\374\360*\275 _$\276\315X \276\350\271\311=\016\034\217\275\347gk=t\"\344=4\351N==\210#=\020\355z\275\237\351f\275\212\337\216=\220\325\364\274\273\256m\275;S\365\273\235z\276\275\230\014s;\'\362G=\227\276\272\274pru=\337\007\301=\204}\246=\013\017\t\275\014m4>o\262\324\275\323\030\345\272\210\014I\275\230\027\232\274}\250X=q\035\243\275\354\313\223\275\214\230\260;j\246\343\275\224\033u\274U\325`=.M\234=s\335\242\275\234>\006\276\367\202\315\274 j\345\275\307\315\240\275\341\316\020>9\336\217=g\216\304\275_F\230<\357\0227=\310!%<\027\266\202=\336\207\263\275\216\245y\273\326\331\345=TB\333\274-\016\220:1\3370\276\314hq\274\240y\274<;`\253\275\240\263\221=\276\346\n\274\377\374\023>=\252\360\274\322\360\237\274\2614\254\274a;\017\276\266\200\257\274st\305\275\271\177\353\275\036kO\275p\225t\275:\264\332=\210\003\202\275=9\207=\302\024X=\303\375.\274\027\315\361;\r\226d\275U\240\270=\243E!\275\270\274\353=\027\005\215=\277WJ\274\366\207\333\275\242p-\274\261\376\323;\367\t\277\275i\n\316<\2648\272<X\354\372\274.\230H\275\252&\367\274F\315\031\273\317\327o=\371\301,\276\300\340\303=\177\037\216=\004\006\213\275\230\336}=!\253\203\275{\220.\274\026n4>\262^\265\274\233\254o=\361+,\275\025\017\334\275\372<\354=5\017\244=Z,\225\275\350\376\376\274Zu\221<@Ve\275G\300\237=-Y\030>\002V\344=\354\245\250\275~\257\303\274\363\242\327\275\0033c\275\330K\217\275\232\206\272=\315\337w\274CN\323\275 \3633\276\'\335\346\273\275\227\344\275\255|\323::\336i<\313M\033\275\003\344\305\275-\365\206\275\330C`<\224*J\275Z\006\263=\0140\006\275>\306N\275<\274\'=\246\367\374=\203\227\340\274w\260\214\273\341\261\026=\030\356!>\3632\222<(M@\275~\210 >\022\343\317\273\023\271\256=\244\336\036\276\270\034\231<f+\t\275\335\\v\273\212\377\020=\24132=\232\0359\276\020\362b\275\020+\307\275\344j\206\275\313\332:\2744~I\276\210>\302=\313\231\374<$\025\221\275\206\333l=\027P\312\275a\203\203;\374\374\327=3B\331<N\364\342\275\232U\320\275\201\210\203\275\236\346B\275\366\354\321\274y(\240<\230\014\357\274\013 \024\276uG\260=\360\3703\274l\235[\273\250K.=h\267\205<|i\023\275\021\276,=1#\217=\341\037\367\274@\340i\275\207~\010=i\223\300=\352=o\275\210\2577=\265\242E\276\200\223\024>\025\037\350\275\266>->\363y\275=\324\245\003\275\215\025@\275\324\351E\275D\363\t>\010\301U;;\254\261\274=\032\277\275\321\372\205\274\264\250-\273\"\372:\274&y3=h\357F\275\352[\301\275\034{Q=A\273\220=\032\214\025\275[\013O\275\372\362\207\275\025\3269\274l\007,<\223\337\003\276<\326\364\274\021e6\276\271\250\341\274\256H);\031\240!>D^\t=M $<\265\032\225<\206\316\250=O\3115\275Q\224\306\274\256j\304<\003\n\202\275|\200l=\222\357\205<\315k0\275zY\230\275,|\202=\255\216\352=/\223\255\275\314v\261=\305G\007\276\262X\365\274\375\304\023>\264\310\270\275\355\\F;6\325J=\227\377\241=o\237\255=)\221\t\275\231\300\206\275xx >N{\265<\312U\312=\346H\035>~*\321:\210\232b\274\206\331\275=\355\3379\276\266\321\324\274jF,=\255\256\254\275\211\356<\274\202*\\\275\345!\214\275&\304P=\220\346\"\276_Z\215=LE\034\275]\364\323=\346\311\216\274\003\242\316\274\370\346\366\275gi\000\275\032\327\371=\344z\325;-p\313=\014\217\274=\270\226\252\275\230q\004>9&\225\273p\302\230\275\306\327A\276-T\356=\3731\370\275\246\323\250<\275e\212\275\325\237\344<C\0021\275\301\226\224<R\373\275\275\327\326\323=\215\366\300\274\370\374\361\275\'\032\324;\312|\200=\364\367\325\273\320\020\243\274r,\'=\340z\232\274\341\350#\273\211\305\254=\274\264z\275\312\327R\274\357\242\243=\021\001m\275\344\237\357\275{\333\275\273wf+\275\304\243x\273\220\025|\275_9\243\274:\202\310=\002\345\225=\245\030;\276e\227\236<lb\215\274\036\210\036\274z\232\273=\271b_=\317a\225\274!\263\035\275\256bv\275\313 r\275\016=\320\275+\177\351:J@\030\276=&\006=kC\016>\341\252f\275d\004\002\276\345\333&>\323\301d\275N\321\237\274Xe\r\274A5\262\274k\247\313<[\271\003>+I\010<f)^<Q\245-=o\241\342\275\377\305\315\275\332|\214\275Y^\250=h\272\237\273\376\244\030\274\014q\224=\237\200\346<\237\336\007\275\335\233\025\275\226,.\276J\307D\275\217\210=<\350\177+\274\256(\246\274\3059\032<\317\017*\276\304\331$\272G\344O\275\275z\373<)\374\200<\353\'e=u\303\334;\221\360\263\274\314\227\001>\215\013V\275A\035\312\275\226H\214\274\216\222F=g_0>y\375)\276X\234:\275v\037\336:x.\373;\311\243\213\275\242*J\275\032\312\314=\203\344\315=\364\320W\275\022\352\217\275<\021I\275#\302\347<\014a\325\275\007J<:i\212\237\275\363/5\2756R\223=\352\326\234=/\277\255<`\361!\2751\241\206\275{\035\304\275Up\332\274\206\217\313==I\252\274LBP\274*\032\220\275\323S\033>\014\304\305=\336P%>1\357\274<<\264Q\274\331\360\205=S\224\007=@\027^\275@W\024=$\215s\274\262QC>*( >28\007\2766m1=\310\353\266\275\237f\031\276\210\346\304\275P9\260\273&\365\017\276\270\265w=\217@\346=\206\364V\275\3163Y\275\260\323\032\276\255e\t\272\243\332->\214`\311=\362\252\223=\013\322\316\2738<\252=\310\2273=\016\376\253\275\237\240\014=\303\340\367\275&\305P=\204A0<\037\222\321<\257\362+=\301\351\203=\257\275\253=\334\242\220\274\376\250\002\276$\312\000=\032\t\231<)\246\263=u\261\332\274\252\031\245=!\215\276=\027\344\n\275\320Y\346<\003p\310=\313.\376<\240\310\366=\310H\006\275\\\232\003=(\031\227=_\237Q\276\267\313\214=\344\314\311\275\305\245\205=\376\312\377\274B\212\024=\361h\r<j\203\320=\373hM\275ln\025>\340\266\252;\273m\013<\204:3\276\302\242&\273R\200\206:\3613m\275Z\2101\275\366v\034\275(N\224\274\374\370\016\2760\373y=x\235\263\274F\225\336\274\304\220\242\2757\347\177\275\2223\274<\226K\327\275\r\200\366;G\n\333\274X\201\337\275\273NI\275\257\032\235\275\342\323\335\275\356U\315\272\365\374\261\275^\034\030\276\004\371\321\275\251\343\267<\227)N\275\352\355\r\274\360\\\206=Y\345i<xT\n><\3356=\334fg<\'\266\210=\260\rt;\304|\222=)2\340<\227\245\013>Eo\377\275\002\006%<\367^\017\275,\227\301<\023?\206\275\234\"G=\027\246 \276\204\243@\275d7\350\274<\355\n\275\213/\032=\247CV=\007nH=t\213\375\275\211V\306=\267>0=2i\231=\037\005\237\275\r\353t\275\023\010\260\274r\360\335\274\025B\266\275\362\306\010=\261\223\t\274\244\306\032\275\017G\301=\256\253-=^\325\341<\310\010\232<\202\032\006\275m\336%=y\376\345\275\333}\213\275\374W\245=1\335\361=\270\375d\275\000?\215\275\340\267\325\275gV\337\275sB\341;\021\216\247\275\374\261/=\341\377\033<\023y&\275U<\205<\031\376\301\274\321\302,<\312\241l\275E\010\320=\312\360\255=]S-\275\242\t2=4\301\223;k\3303\275\007\272\306\275_\014\334\275\034-\320\275>\264[=\016j\004>\365\336\234<\234=\030=d|\001>\316\025\356<:\247\214=\033\341\000\276\376_\275;\334\344\323\275\217\214\200\275\273H@\2755H\020\2753a\006\276\'>\035=\007\365H\276\201@\367\275\325\350\261\275\001\202\303\275\233XC\275<]/\274\347\035C\2755\217\n>9\025\211\274\n>d\273\307E\240\274;\261\013\2760\217\323=\316\017\244=\247\215\007\274\006\245c=\316Cc=\336\202\325=S\344@\275\216\2374=\251\373\271\275\224B8=3\210\342\275\255\r~\274a\376\034>\001\366\306\275\006\235\252\274\217A\350\274y#x\275:\371\264\275!\n^\275w{\021\275\232I\017=\200A\226<\353y\213\275\305\001\270\275Z\330\267=\226\033\302\274\347\211~\275\005N\006\275\365fo\275w0\331\274\324\024\236\275$\360\263\275\2755\343<\270\263\227<m\037p\275\276\245\231\2744\226S\274\262\210\n>\265\352\352\274g z\275\317\207\004>&j\216\275m\272\347\274cQ\202>B\006\317\275\314\265\227=r\023\222\274;X\364\274\371\306\361\275\356\2303>\000;\377=.\375\216\275cC\354\274\256\333\213\275\277G\243\273\243C\301=\346\263\363\275\324cn=>M\334\275\231F\207=\265J\204=U9D=E\037H\274H\016\013\274\207S\215\273P\245\200<\304\006\013\276\2221\200\275k\010\032>\020\245\006=v\242\206\274r\277\356=\377v->\255-\327\2752\004\203=\036\353\371=\300}\215=\371\361\306=\345\235O\275\265u\360\274\201\026\246\275C\316\035\275\357:\034=\361\343\302\275\001\221\350=\272\r\315\274\327h\026\276T\346\006\275\"f\037\275]\343\256\274\232\332\021;\371n\366\275\'\323\275\275\013\206\010\275YF=\275\262\033M\276\2569\202\275\234\270\244\275\252\246\266=\225x\356<:\370\240\275\nS\351<O*\001=\032\221\000\275w\030\273\275\240\030(\275\255\'\034\276l\236\306\274\341\022\027=\253\317\276\275\226\312 >1\'A\275\246u8\274\324\313#\274\235&p=r\342\243\275\004\232\206;\023\006t\275\324d[\275SM\246\274\314K\334\275\265\232\007\274\204\3214=\032r\266\275\343k2\274\007^3=\360\251\266\274\334\2554=\262\213w=U\r\253=1U3>\327\'\212\273H\314V=\324\271j>\272\363\306<\300{J\275\251\231c\275\311a%=\\&\277\275@\343\030\275\203\252~\275\261\001\353\274Hj\363\275-\214%\276\312o)\275\305(\326=>\276\357\274z\363y\274\256\342\373\271\366\331\261=\374\265\353<\212\261w\275\343{\302\275;\276\261=xt\033;W\257\322\274\200\017\013>\033A\225=\254\031\336\275\221\363\203=f\225\216=\016\230t=F\235\333<72\235=\226F\224=\320\004-<C\363\201\274\002s\226<A\232c=\004\234\232<t\337p=\204\266\023\276c\271\372\275\326\2700\274\\0\203<\311\261\204\275\210\364\210\273e[\324<\225V!<z/A\273\265\243D<riM\274R\240\004=CXG>\021\212\177;\357\226>\276m5B\275\016\272\354<\2237l\275\2343\356=\014i\236<\277\276f\275\336\230\236=\267\000\003\276\022\316\014\276F\330l\276\020b\361<\253\346\260=\203\215\300<\265:\211\275\304$\325\274WR~=bHj:X\375<\276\303\351\276=5\014\016=\303\230\346\275@\232\001\276j\023?\275\363\254\000>\374\337r;S\002*\275\324\003r=\237gR=\312K\355=\233\242\235\275\226\305A\275D\031\262\275\263\035\373<&\310\200:o\357\275\275<\374\224=\267J\314=\177y\363\274\006z_=2\353_\275\036+\334\274\303\314\305<q\320?\275\336\301\236=\317I\013=\013\206i=\226iC\275\025*$\275"
      }
    }
  }
}
node {
  name: "bidirectional_1/forward_lstm_1/recurrent_kernel"
  op: "VariableV2"
  attr {
    key: "container"
    value {
      s: ""
    }
  }
  attr {
    key: "dtype"
    value {
      type: DT_FLOAT
    }
  }
  attr {
    key: "shape"
    value {
      shape {
        dim {
          size: 40
        }
        dim {
          size: 160
        }
      }
    }
  }
  attr {
    key: "shared_name"
    value {
      s: ""
    }
  }
}
node {
  name: "bidirectional_1/forward_lstm_1/recurrent_kernel/Assign"
  op: "Assign"
  input: "bidirectional_1/forward_lstm_1/recurrent_kernel"
  input: "bidirectional_1/forward_lstm_1/recurrent_kernel/initial_value"
  attr {
    key: "T"
    value {
      type: DT_FLOAT
    }
  }
  attr {
    key: "_class"
    value {
      list {
        s: "loc:@bidirectional_1/forward_lstm_1/recurrent_kernel"
      }
    }
  }
  attr {
    key: "use_locking"
    value {
      b: true
    }
  }
  attr {
    key: "validate_shape"
    value {
      b: true
    }
  }
}
node {
  name: "bidirectional_1/forward_lstm_1/recurrent_kernel/read"
  op: "Identity"
  input: "bidirectional_1/forward_lstm_1/recurrent_kernel"
  attr {
    key: "T"
    value {
      type: DT_FLOAT
    }
  }
  attr {
    key: "_class"
    value {
      list {
        s: "loc:@bidirectional_1/forward_lstm_1/recurrent_kernel"
      }
    }
  }
}
node {
  name: "bidirectional_1/forward_lstm_1/Const"
  op: "Const"
  attr {
    key: "dtype"
    value {
      type: DT_FLOAT
    }
  }
  attr {
    key: "value"
    value {
      tensor {
        dtype: DT_FLOAT
        tensor_shape {
          dim {
            size: 40
          }
        }
        float_val: 0.0
      }
    }
  }
}
node {
  name: "bidirectional_1/forward_lstm_1/Const_1"
  op: "Const"
  attr {
    key: "dtype"
    value {
      type: DT_FLOAT
    }
  }
  attr {
    key: "value"
    value {
      tensor {
        dtype: DT_FLOAT
        tensor_shape {
          dim {
            size: 40
          }
        }
        float_val: 1.0
      }
    }
  }
}
node {
  name: "bidirectional_1/forward_lstm_1/Const_2"
  op: "Const"
  attr {
    key: "dtype"
    value {
      type: DT_FLOAT
    }
  }
  attr {
    key: "value"
    value {
      tensor {
        dtype: DT_FLOAT
        tensor_shape {
          dim {
            size: 80
          }
        }
        float_val: 0.0
      }
    }
  }
}
node {
  name: "bidirectional_1/forward_lstm_1/concat/axis"
  op: "Const"
  attr {
    key: "dtype"
    value {
      type: DT_INT32
    }
  }
  attr {
    key: "value"
    value {
      tensor {
        dtype: DT_INT32
        tensor_shape {
        }
        int_val: 0
      }
    }
  }
}
node {
  name: "bidirectional_1/forward_lstm_1/concat"
  op: "ConcatV2"
  input: "bidirectional_1/forward_lstm_1/Const"
  input: "bidirectional_1/forward_lstm_1/Const_1"
  input: "bidirectional_1/forward_lstm_1/Const_2"
  input: "bidirectional_1/forward_lstm_1/concat/axis"
  attr {
    key: "N"
    value {
      i: 3
    }
  }
  attr {
    key: "T"
    value {
      type: DT_FLOAT
    }
  }
  attr {
    key: "Tidx"
    value {
      type: DT_INT32
    }
  }
}
node {
  name: "bidirectional_1/forward_lstm_1/bias"
  op: "VariableV2"
  attr {
    key: "container"
    value {
      s: ""
    }
  }
  attr {
    key: "dtype"
    value {
      type: DT_FLOAT
    }
  }
  attr {
    key: "shape"
    value {
      shape {
        dim {
          size: 160
        }
      }
    }
  }
  attr {
    key: "shared_name"
    value {
      s: ""
    }
  }
}
node {
  name: "bidirectional_1/forward_lstm_1/bias/Assign"
  op: "Assign"
  input: "bidirectional_1/forward_lstm_1/bias"
  input: "bidirectional_1/forward_lstm_1/concat"
  attr {
    key: "T"
    value {
      type: DT_FLOAT
    }
  }
  attr {
    key: "_class"
    value {
      list {
        s: "loc:@bidirectional_1/forward_lstm_1/bias"
      }
    }
  }
  attr {
    key: "use_locking"
    value {
      b: true
    }
  }
  attr {
    key: "validate_shape"
    value {
      b: true
    }
  }
}
node {
  name: "bidirectional_1/forward_lstm_1/bias/read"
  op: "Identity"
  input: "bidirectional_1/forward_lstm_1/bias"
  attr {
    key: "T"
    value {
      type: DT_FLOAT
    }
  }
  attr {
    key: "_class"
    value {
      list {
        s: "loc:@bidirectional_1/forward_lstm_1/bias"
      }
    }
  }
}
node {
  name: "bidirectional_1/forward_lstm_1/strided_slice/stack"
  op: "Const"
  attr {
    key: "dtype"
    value {
      type: DT_INT32
    }
  }
  attr {
    key: "value"
    value {
      tensor {
        dtype: DT_INT32
        tensor_shape {
          dim {
            size: 2
          }
        }
        tensor_content: "\000\000\000\000\000\000\000\000"
      }
    }
  }
}
node {
  name: "bidirectional_1/forward_lstm_1/strided_slice/stack_1"
  op: "Const"
  attr {
    key: "dtype"
    value {
      type: DT_INT32
    }
  }
  attr {
    key: "value"
    value {
      tensor {
        dtype: DT_INT32
        tensor_shape {
          dim {
            size: 2
          }
        }
        tensor_content: "\000\000\000\000(\000\000\000"
      }
    }
  }
}
node {
  name: "bidirectional_1/forward_lstm_1/strided_slice/stack_2"
  op: "Const"
  attr {
    key: "dtype"
    value {
      type: DT_INT32
    }
  }
  attr {
    key: "value"
    value {
      tensor {
        dtype: DT_INT32
        tensor_shape {
          dim {
            size: 2
          }
        }
        tensor_content: "\001\000\000\000\001\000\000\000"
      }
    }
  }
}
node {
  name: "bidirectional_1/forward_lstm_1/strided_slice"
  op: "StridedSlice"
  input: "bidirectional_1/forward_lstm_1/kernel/read"
  input: "bidirectional_1/forward_lstm_1/strided_slice/stack"
  input: "bidirectional_1/forward_lstm_1/strided_slice/stack_1"
  input: "bidirectional_1/forward_lstm_1/strided_slice/stack_2"
  attr {
    key: "Index"
    value {
      type: DT_INT32
    }
  }
  attr {
    key: "T"
    value {
      type: DT_FLOAT
    }
  }
  attr {
    key: "begin_mask"
    value {
      i: 3
    }
  }
  attr {
    key: "ellipsis_mask"
    value {
      i: 0
    }
  }
  attr {
    key: "end_mask"
    value {
      i: 1
    }
  }
  attr {
    key: "new_axis_mask"
    value {
      i: 0
    }
  }
  attr {
    key: "shrink_axis_mask"
    value {
      i: 0
    }
  }
}
node {
  name: "bidirectional_1/forward_lstm_1/strided_slice_1/stack"
  op: "Const"
  attr {
    key: "dtype"
    value {
      type: DT_INT32
    }
  }
  attr {
    key: "value"
    value {
      tensor {
        dtype: DT_INT32
        tensor_shape {
          dim {
            size: 2
          }
        }
        tensor_content: "\000\000\000\000(\000\000\000"
      }
    }
  }
}
node {
  name: "bidirectional_1/forward_lstm_1/strided_slice_1/stack_1"
  op: "Const"
  attr {
    key: "dtype"
    value {
      type: DT_INT32
    }
  }
  attr {
    key: "value"
    value {
      tensor {
        dtype: DT_INT32
        tensor_shape {
          dim {
            size: 2
          }
        }
        tensor_content: "\000\000\000\000P\000\000\000"
      }
    }
  }
}
node {
  name: "bidirectional_1/forward_lstm_1/strided_slice_1/stack_2"
  op: "Const"
  attr {
    key: "dtype"
    value {
      type: DT_INT32
    }
  }
  attr {
    key: "value"
    value {
      tensor {
        dtype: DT_INT32
        tensor_shape {
          dim {
            size: 2
          }
        }
        tensor_content: "\001\000\000\000\001\000\000\000"
      }
    }
  }
}
node {
  name: "bidirectional_1/forward_lstm_1/strided_slice_1"
  op: "StridedSlice"
  input: "bidirectional_1/forward_lstm_1/kernel/read"
  input: "bidirectional_1/forward_lstm_1/strided_slice_1/stack"
  input: "bidirectional_1/forward_lstm_1/strided_slice_1/stack_1"
  input: "bidirectional_1/forward_lstm_1/strided_slice_1/stack_2"
  attr {
    key: "Index"
    value {
      type: DT_INT32
    }
  }
  attr {
    key: "T"
    value {
      type: DT_FLOAT
    }
  }
  attr {
    key: "begin_mask"
    value {
      i: 1
    }
  }
  attr {
    key: "ellipsis_mask"
    value {
      i: 0
    }
  }
  attr {
    key: "end_mask"
    value {
      i: 1
    }
  }
  attr {
    key: "new_axis_mask"
    value {
      i: 0
    }
  }
  attr {
    key: "shrink_axis_mask"
    value {
      i: 0
    }
  }
}
node {
  name: "bidirectional_1/forward_lstm_1/strided_slice_2/stack"
  op: "Const"
  attr {
    key: "dtype"
    value {
      type: DT_INT32
    }
  }
  attr {
    key: "value"
    value {
      tensor {
        dtype: DT_INT32
        tensor_shape {
          dim {
            size: 2
          }
        }
        tensor_content: "\000\000\000\000P\000\000\000"
      }
    }
  }
}
node {
  name: "bidirectional_1/forward_lstm_1/strided_slice_2/stack_1"
  op: "Const"
  attr {
    key: "dtype"
    value {
      type: DT_INT32
    }
  }
  attr {
    key: "value"
    value {
      tensor {
        dtype: DT_INT32
        tensor_shape {
          dim {
            size: 2
          }
        }
        tensor_content: "\000\000\000\000x\000\000\000"
      }
    }
  }
}
node {
  name: "bidirectional_1/forward_lstm_1/strided_slice_2/stack_2"
  op: "Const"
  attr {
    key: "dtype"
    value {
      type: DT_INT32
    }
  }
  attr {
    key: "value"
    value {
      tensor {
        dtype: DT_INT32
        tensor_shape {
          dim {
            size: 2
          }
        }
        tensor_content: "\001\000\000\000\001\000\000\000"
      }
    }
  }
}
node {
  name: "bidirectional_1/forward_lstm_1/strided_slice_2"
  op: "StridedSlice"
  input: "bidirectional_1/forward_lstm_1/kernel/read"
  input: "bidirectional_1/forward_lstm_1/strided_slice_2/stack"
  input: "bidirectional_1/forward_lstm_1/strided_slice_2/stack_1"
  input: "bidirectional_1/forward_lstm_1/strided_slice_2/stack_2"
  attr {
    key: "Index"
    value {
      type: DT_INT32
    }
  }
  attr {
    key: "T"
    value {
      type: DT_FLOAT
    }
  }
  attr {
    key: "begin_mask"
    value {
      i: 1
    }
  }
  attr {
    key: "ellipsis_mask"
    value {
      i: 0
    }
  }
  attr {
    key: "end_mask"
    value {
      i: 1
    }
  }
  attr {
    key: "new_axis_mask"
    value {
      i: 0
    }
  }
  attr {
    key: "shrink_axis_mask"
    value {
      i: 0
    }
  }
}
node {
  name: "bidirectional_1/forward_lstm_1/strided_slice_3/stack"
  op: "Const"
  attr {
    key: "dtype"
    value {
      type: DT_INT32
    }
  }
  attr {
    key: "value"
    value {
      tensor {
        dtype: DT_INT32
        tensor_shape {
          dim {
            size: 2
          }
        }
        tensor_content: "\000\000\000\000x\000\000\000"
      }
    }
  }
}
node {
  name: "bidirectional_1/forward_lstm_1/strided_slice_3/stack_1"
  op: "Const"
  attr {
    key: "dtype"
    value {
      type: DT_INT32
    }
  }
  attr {
    key: "value"
    value {
      tensor {
        dtype: DT_INT32
        tensor_shape {
          dim {
            size: 2
          }
        }
        tensor_content: "\000\000\000\000\000\000\000\000"
      }
    }
  }
}
node {
  name: "bidirectional_1/forward_lstm_1/strided_slice_3/stack_2"
  op: "Const"
  attr {
    key: "dtype"
    value {
      type: DT_INT32
    }
  }
  attr {
    key: "value"
    value {
      tensor {
        dtype: DT_INT32
        tensor_shape {
          dim {
            size: 2
          }
        }
        tensor_content: "\001\000\000\000\001\000\000\000"
      }
    }
  }
}
node {
  name: "bidirectional_1/forward_lstm_1/strided_slice_3"
  op: "StridedSlice"
  input: "bidirectional_1/forward_lstm_1/kernel/read"
  input: "bidirectional_1/forward_lstm_1/strided_slice_3/stack"
  input: "bidirectional_1/forward_lstm_1/strided_slice_3/stack_1"
  input: "bidirectional_1/forward_lstm_1/strided_slice_3/stack_2"
  attr {
    key: "Index"
    value {
      type: DT_INT32
    }
  }
  attr {
    key: "T"
    value {
      type: DT_FLOAT
    }
  }
  attr {
    key: "begin_mask"
    value {
      i: 1
    }
  }
  attr {
    key: "ellipsis_mask"
    value {
      i: 0
    }
  }
  attr {
    key: "end_mask"
    value {
      i: 3
    }
  }
  attr {
    key: "new_axis_mask"
    value {
      i: 0
    }
  }
  attr {
    key: "shrink_axis_mask"
    value {
      i: 0
    }
  }
}
node {
  name: "bidirectional_1/forward_lstm_1/strided_slice_4/stack"
  op: "Const"
  attr {
    key: "dtype"
    value {
      type: DT_INT32
    }
  }
  attr {
    key: "value"
    value {
      tensor {
        dtype: DT_INT32
        tensor_shape {
          dim {
            size: 2
          }
        }
        tensor_content: "\000\000\000\000\000\000\000\000"
      }
    }
  }
}
node {
  name: "bidirectional_1/forward_lstm_1/strided_slice_4/stack_1"
  op: "Const"
  attr {
    key: "dtype"
    value {
      type: DT_INT32
    }
  }
  attr {
    key: "value"
    value {
      tensor {
        dtype: DT_INT32
        tensor_shape {
          dim {
            size: 2
          }
        }
        tensor_content: "\000\000\000\000(\000\000\000"
      }
    }
  }
}
node {
  name: "bidirectional_1/forward_lstm_1/strided_slice_4/stack_2"
  op: "Const"
  attr {
    key: "dtype"
    value {
      type: DT_INT32
    }
  }
  attr {
    key: "value"
    value {
      tensor {
        dtype: DT_INT32
        tensor_shape {
          dim {
            size: 2
          }
        }
        tensor_content: "\001\000\000\000\001\000\000\000"
      }
    }
  }
}
node {
  name: "bidirectional_1/forward_lstm_1/strided_slice_4"
  op: "StridedSlice"
  input: "bidirectional_1/forward_lstm_1/recurrent_kernel/read"
  input: "bidirectional_1/forward_lstm_1/strided_slice_4/stack"
  input: "bidirectional_1/forward_lstm_1/strided_slice_4/stack_1"
  input: "bidirectional_1/forward_lstm_1/strided_slice_4/stack_2"
  attr {
    key: "Index"
    value {
      type: DT_INT32
    }
  }
  attr {
    key: "T"
    value {
      type: DT_FLOAT
    }
  }
  attr {
    key: "begin_mask"
    value {
      i: 3
    }
  }
  attr {
    key: "ellipsis_mask"
    value {
      i: 0
    }
  }
  attr {
    key: "end_mask"
    value {
      i: 1
    }
  }
  attr {
    key: "new_axis_mask"
    value {
      i: 0
    }
  }
  attr {
    key: "shrink_axis_mask"
    value {
      i: 0
    }
  }
}
node {
  name: "bidirectional_1/forward_lstm_1/strided_slice_5/stack"
  op: "Const"
  attr {
    key: "dtype"
    value {
      type: DT_INT32
    }
  }
  attr {
    key: "value"
    value {
      tensor {
        dtype: DT_INT32
        tensor_shape {
          dim {
            size: 2
          }
        }
        tensor_content: "\000\000\000\000(\000\000\000"
      }
    }
  }
}
node {
  name: "bidirectional_1/forward_lstm_1/strided_slice_5/stack_1"
  op: "Const"
  attr {
    key: "dtype"
    value {
      type: DT_INT32
    }
  }
  attr {
    key: "value"
    value {
      tensor {
        dtype: DT_INT32
        tensor_shape {
          dim {
            size: 2
          }
        }
        tensor_content: "\000\000\000\000P\000\000\000"
      }
    }
  }
}
node {
  name: "bidirectional_1/forward_lstm_1/strided_slice_5/stack_2"
  op: "Const"
  attr {
    key: "dtype"
    value {
      type: DT_INT32
    }
  }
  attr {
    key: "value"
    value {
      tensor {
        dtype: DT_INT32
        tensor_shape {
          dim {
            size: 2
          }
        }
        tensor_content: "\001\000\000\000\001\000\000\000"
      }
    }
  }
}
node {
  name: "bidirectional_1/forward_lstm_1/strided_slice_5"
  op: "StridedSlice"
  input: "bidirectional_1/forward_lstm_1/recurrent_kernel/read"
  input: "bidirectional_1/forward_lstm_1/strided_slice_5/stack"
  input: "bidirectional_1/forward_lstm_1/strided_slice_5/stack_1"
  input: "bidirectional_1/forward_lstm_1/strided_slice_5/stack_2"
  attr {
    key: "Index"
    value {
      type: DT_INT32
    }
  }
  attr {
    key: "T"
    value {
      type: DT_FLOAT
    }
  }
  attr {
    key: "begin_mask"
    value {
      i: 1
    }
  }
  attr {
    key: "ellipsis_mask"
    value {
      i: 0
    }
  }
  attr {
    key: "end_mask"
    value {
      i: 1
    }
  }
  attr {
    key: "new_axis_mask"
    value {
      i: 0
    }
  }
  attr {
    key: "shrink_axis_mask"
    value {
      i: 0
    }
  }
}
node {
  name: "bidirectional_1/forward_lstm_1/strided_slice_6/stack"
  op: "Const"
  attr {
    key: "dtype"
    value {
      type: DT_INT32
    }
  }
  attr {
    key: "value"
    value {
      tensor {
        dtype: DT_INT32
        tensor_shape {
          dim {
            size: 2
          }
        }
        tensor_content: "\000\000\000\000P\000\000\000"
      }
    }
  }
}
node {
  name: "bidirectional_1/forward_lstm_1/strided_slice_6/stack_1"
  op: "Const"
  attr {
    key: "dtype"
    value {
      type: DT_INT32
    }
  }
  attr {
    key: "value"
    value {
      tensor {
        dtype: DT_INT32
        tensor_shape {
          dim {
            size: 2
          }
        }
        tensor_content: "\000\000\000\000x\000\000\000"
      }
    }
  }
}
node {
  name: "bidirectional_1/forward_lstm_1/strided_slice_6/stack_2"
  op: "Const"
  attr {
    key: "dtype"
    value {
      type: DT_INT32
    }
  }
  attr {
    key: "value"
    value {
      tensor {
        dtype: DT_INT32
        tensor_shape {
          dim {
            size: 2
          }
        }
        tensor_content: "\001\000\000\000\001\000\000\000"
      }
    }
  }
}
node {
  name: "bidirectional_1/forward_lstm_1/strided_slice_6"
  op: "StridedSlice"
  input: "bidirectional_1/forward_lstm_1/recurrent_kernel/read"
  input: "bidirectional_1/forward_lstm_1/strided_slice_6/stack"
  input: "bidirectional_1/forward_lstm_1/strided_slice_6/stack_1"
  input: "bidirectional_1/forward_lstm_1/strided_slice_6/stack_2"
  attr {
    key: "Index"
    value {
      type: DT_INT32
    }
  }
  attr {
    key: "T"
    value {
      type: DT_FLOAT
    }
  }
  attr {
    key: "begin_mask"
    value {
      i: 1
    }
  }
  attr {
    key: "ellipsis_mask"
    value {
      i: 0
    }
  }
  attr {
    key: "end_mask"
    value {
      i: 1
    }
  }
  attr {
    key: "new_axis_mask"
    value {
      i: 0
    }
  }
  attr {
    key: "shrink_axis_mask"
    value {
      i: 0
    }
  }
}
node {
  name: "bidirectional_1/forward_lstm_1/strided_slice_7/stack"
  op: "Const"
  attr {
    key: "dtype"
    value {
      type: DT_INT32
    }
  }
  attr {
    key: "value"
    value {
      tensor {
        dtype: DT_INT32
        tensor_shape {
          dim {
            size: 2
          }
        }
        tensor_content: "\000\000\000\000x\000\000\000"
      }
    }
  }
}
node {
  name: "bidirectional_1/forward_lstm_1/strided_slice_7/stack_1"
  op: "Const"
  attr {
    key: "dtype"
    value {
      type: DT_INT32
    }
  }
  attr {
    key: "value"
    value {
      tensor {
        dtype: DT_INT32
        tensor_shape {
          dim {
            size: 2
          }
        }
        tensor_content: "\000\000\000\000\000\000\000\000"
      }
    }
  }
}
node {
  name: "bidirectional_1/forward_lstm_1/strided_slice_7/stack_2"
  op: "Const"
  attr {
    key: "dtype"
    value {
      type: DT_INT32
    }
  }
  attr {
    key: "value"
    value {
      tensor {
        dtype: DT_INT32
        tensor_shape {
          dim {
            size: 2
          }
        }
        tensor_content: "\001\000\000\000\001\000\000\000"
      }
    }
  }
}
node {
  name: "bidirectional_1/forward_lstm_1/strided_slice_7"
  op: "StridedSlice"
  input: "bidirectional_1/forward_lstm_1/recurrent_kernel/read"
  input: "bidirectional_1/forward_lstm_1/strided_slice_7/stack"
  input: "bidirectional_1/forward_lstm_1/strided_slice_7/stack_1"
  input: "bidirectional_1/forward_lstm_1/strided_slice_7/stack_2"
  attr {
    key: "Index"
    value {
      type: DT_INT32
    }
  }
  attr {
    key: "T"
    value {
      type: DT_FLOAT
    }
  }
  attr {
    key: "begin_mask"
    value {
      i: 1
    }
  }
  attr {
    key: "ellipsis_mask"
    value {
      i: 0
    }
  }
  attr {
    key: "end_mask"
    value {
      i: 3
    }
  }
  attr {
    key: "new_axis_mask"
    value {
      i: 0
    }
  }
  attr {
    key: "shrink_axis_mask"
    value {
      i: 0
    }
  }
}
node {
  name: "bidirectional_1/forward_lstm_1/strided_slice_8/stack"
  op: "Const"
  attr {
    key: "dtype"
    value {
      type: DT_INT32
    }
  }
  attr {
    key: "value"
    value {
      tensor {
        dtype: DT_INT32
        tensor_shape {
          dim {
            size: 1
          }
        }
        int_val: 0
      }
    }
  }
}
node {
  name: "bidirectional_1/forward_lstm_1/strided_slice_8/stack_1"
  op: "Const"
  attr {
    key: "dtype"
    value {
      type: DT_INT32
    }
  }
  attr {
    key: "value"
    value {
      tensor {
        dtype: DT_INT32
        tensor_shape {
          dim {
            size: 1
          }
        }
        int_val: 40
      }
    }
  }
}
node {
  name: "bidirectional_1/forward_lstm_1/strided_slice_8/stack_2"
  op: "Const"
  attr {
    key: "dtype"
    value {
      type: DT_INT32
    }
  }
  attr {
    key: "value"
    value {
      tensor {
        dtype: DT_INT32
        tensor_shape {
          dim {
            size: 1
          }
        }
        int_val: 1
      }
    }
  }
}
node {
  name: "bidirectional_1/forward_lstm_1/strided_slice_8"
  op: "StridedSlice"
  input: "bidirectional_1/forward_lstm_1/bias/read"
  input: "bidirectional_1/forward_lstm_1/strided_slice_8/stack"
  input: "bidirectional_1/forward_lstm_1/strided_slice_8/stack_1"
  input: "bidirectional_1/forward_lstm_1/strided_slice_8/stack_2"
  attr {
    key: "Index"
    value {
      type: DT_INT32
    }
  }
  attr {
    key: "T"
    value {
      type: DT_FLOAT
    }
  }
  attr {
    key: "begin_mask"
    value {
      i: 1
    }
  }
  attr {
    key: "ellipsis_mask"
    value {
      i: 0
    }
  }
  attr {
    key: "end_mask"
    value {
      i: 0
    }
  }
  attr {
    key: "new_axis_mask"
    value {
      i: 0
    }
  }
  attr {
    key: "shrink_axis_mask"
    value {
      i: 0
    }
  }
}
node {
  name: "bidirectional_1/forward_lstm_1/strided_slice_9/stack"
  op: "Const"
  attr {
    key: "dtype"
    value {
      type: DT_INT32
    }
  }
  attr {
    key: "value"
    value {
      tensor {
        dtype: DT_INT32
        tensor_shape {
          dim {
            size: 1
          }
        }
        int_val: 40
      }
    }
  }
}
node {
  name: "bidirectional_1/forward_lstm_1/strided_slice_9/stack_1"
  op: "Const"
  attr {
    key: "dtype"
    value {
      type: DT_INT32
    }
  }
  attr {
    key: "value"
    value {
      tensor {
        dtype: DT_INT32
        tensor_shape {
          dim {
            size: 1
          }
        }
        int_val: 80
      }
    }
  }
}
node {
  name: "bidirectional_1/forward_lstm_1/strided_slice_9/stack_2"
  op: "Const"
  attr {
    key: "dtype"
    value {
      type: DT_INT32
    }
  }
  attr {
    key: "value"
    value {
      tensor {
        dtype: DT_INT32
        tensor_shape {
          dim {
            size: 1
          }
        }
        int_val: 1
      }
    }
  }
}
node {
  name: "bidirectional_1/forward_lstm_1/strided_slice_9"
  op: "StridedSlice"
  input: "bidirectional_1/forward_lstm_1/bias/read"
  input: "bidirectional_1/forward_lstm_1/strided_slice_9/stack"
  input: "bidirectional_1/forward_lstm_1/strided_slice_9/stack_1"
  input: "bidirectional_1/forward_lstm_1/strided_slice_9/stack_2"
  attr {
    key: "Index"
    value {
      type: DT_INT32
    }
  }
  attr {
    key: "T"
    value {
      type: DT_FLOAT
    }
  }
  attr {
    key: "begin_mask"
    value {
      i: 0
    }
  }
  attr {
