node {
  name: "bidirectional_1_input"
  op: "Placeholder"
  attr {
    key: "dtype"
    value {
      type: DT_FLOAT
    }
  }
  attr {
    key: "shape"
    value {
      shape {
        dim {
          size: -1
        }
        dim {
          size: 400
        }
        dim {
          size: 1
        }
      }
    }
  }
}
node {
  name: "bidirectional_1/forward_lstm_1/random_normal/shape"
  op: "Const"
  attr {
    key: "dtype"
    value {
      type: DT_INT32
    }
  }
  attr {
    key: "value"
    value {
      tensor {
        dtype: DT_INT32
        tensor_shape {
          dim {
            size: 2
          }
        }
        tensor_content: "\001\000\000\000\240\000\000\000"
      }
    }
  }
}
node {
  name: "bidirectional_1/forward_lstm_1/random_normal/mean"
  op: "Const"
  attr {
    key: "dtype"
    value {
      type: DT_FLOAT
    }
  }
  attr {
    key: "value"
    value {
      tensor {
        dtype: DT_FLOAT
        tensor_shape {
        }
        float_val: 0.0
      }
    }
  }
}
node {
  name: "bidirectional_1/forward_lstm_1/random_normal/stddev"
  op: "Const"
  attr {
    key: "dtype"
    value {
      type: DT_FLOAT
    }
  }
  attr {
    key: "value"
    value {
      tensor {
        dtype: DT_FLOAT
        tensor_shape {
        }
        float_val: 1.0
      }
    }
  }
}
node {
  name: "bidirectional_1/forward_lstm_1/random_normal/RandomStandardNormal"
  op: "RandomStandardNormal"
  input: "bidirectional_1/forward_lstm_1/random_normal/shape"
  attr {
    key: "T"
    value {
      type: DT_INT32
    }
  }
  attr {
    key: "dtype"
    value {
      type: DT_FLOAT
    }
  }
  attr {
    key: "seed"
    value {
      i: 87654321
    }
  }
  attr {
    key: "seed2"
    value {
      i: 830093
    }
  }
}
node {
  name: "bidirectional_1/forward_lstm_1/random_normal/mul"
  op: "Mul"
  input: "bidirectional_1/forward_lstm_1/random_normal/RandomStandardNormal"
  input: "bidirectional_1/forward_lstm_1/random_normal/stddev"
  attr {
    key: "T"
    value {
      type: DT_FLOAT
    }
  }
}
node {
  name: "bidirectional_1/forward_lstm_1/random_normal"
  op: "Add"
  input: "bidirectional_1/forward_lstm_1/random_normal/mul"
  input: "bidirectional_1/forward_lstm_1/random_normal/mean"
  attr {
    key: "T"
    value {
      type: DT_FLOAT
    }
  }
}
node {
  name: "bidirectional_1/forward_lstm_1/kernel"
  op: "VariableV2"
  attr {
    key: "container"
    value {
      s: ""
    }
  }
  attr {
    key: "dtype"
    value {
      type: DT_FLOAT
    }
  }
  attr {
    key: "shape"
    value {
      shape {
        dim {
          size: 1
        }
        dim {
          size: 160
        }
      }
    }
  }
  attr {
    key: "shared_name"
    value {
      s: ""
    }
  }
}
node {
  name: "bidirectional_1/forward_lstm_1/kernel/Assign"
  op: "Assign"
  input: "bidirectional_1/forward_lstm_1/kernel"
  input: "bidirectional_1/forward_lstm_1/random_normal"
  attr {
    key: "T"
    value {
      type: DT_FLOAT
    }
  }
  attr {
    key: "_class"
    value {
      list {
        s: "loc:@bidirectional_1/forward_lstm_1/kernel"
      }
    }
  }
  attr {
    key: "use_locking"
    value {
      b: true
    }
  }
  attr {
    key: "validate_shape"
    value {
      b: true
    }
  }
}
node {
  name: "bidirectional_1/forward_lstm_1/kernel/read"
  op: "Identity"
  input: "bidirectional_1/forward_lstm_1/kernel"
  attr {
    key: "T"
    value {
      type: DT_FLOAT
    }
  }
  attr {
    key: "_class"
    value {
      list {
        s: "loc:@bidirectional_1/forward_lstm_1/kernel"
      }
    }
  }
}
node {
  name: "bidirectional_1/forward_lstm_1/recurrent_kernel/initial_value"
  op: "Const"
  attr {
    key: "dtype"
    value {
      type: DT_FLOAT
    }
  }
  attr {
    key: "value"
    value {
      tensor {
        dtype: DT_FLOAT
        tensor_shape {
          dim {
            size: 40
          }
          dim {
            size: 160
          }
        }
        tensor_content: "\207\206\310\275\nm\035=\022\322\240\275l^\333\274?E\337\274X\336@\275\245\004\327=~\356&=\372a:>!\335\027\273\021\330\343<q2\236\275\367z!\275\312\314t=\tqj\275\017\234\226\275\374\343\342\275\000\325k\275C\224\312\273\021\032\220=\014-l\274,\232\231\274\207\001\255=\217\345\274\275\016{\242=\210a\032<\303f\256=\013\214C>\20089=\307\257\301\275.b`=\213\234\"\274\003u+<\r\245\215=\252\302\n\275q\312\204\275\020\252d\275\202\356\302=l\311\344=Bk\344<\332\325\230\275\226\316i;\227\342q\275@\267\234\274\031=\366=7S\257=\037\247\216\275V\004\257\275A\314\016>\031_\016=}\276\370\275G\334\304=\375\023\333<\310\"y\271\3511g\274p}7=\201\363;>\0057G\275\300T\211\274\0048q=\365\034B=\375\030%=\017,\004\276$MQ\274j\220\n>\366Z\356=\202,\t\275\206\346\242\275\226\327\222<\027\r\307=\210\302q\274y\376\016=\200\337\366\275\007rm<\373\367\324<\254j\242=\257]\000=c\241\n>(\265Y\276\200\n \276!Dh=\274\371\247=\335\325E=\266>[=\372\2155\276\t\237\035\275!.\007=\232. \275w\2377<v\233\213<\266\277\232=\221{\220=\2108$={\342\366<\321\204I\276\224\007\024\276\252\215\217\274mtS=\274\3376=\201\304\004<\214,\013<\354\2749=h\227\220\275\231\244\001>\030\212\207\274J\362\204\274\247\337/==B\210\274\275\242T=Z\037\253\272c7\273\274\360\244\";\266a\365\273\325\314\214<\346\025\024=2\305\177<g\202\310=v\350Y\275gM\355=\327\220\366=\372|\001=\210\367\027\275\330\0231<)I<\275\265\0106\276\204j\243=\311 \307=\020z\301\272\200\305\351=w,\213\275a\035Y\276\021\t\232\275\242\337#\276\357\010\305<\327#c=g0)\274\257\014r\275v\232\215\2750<b\275+K\336;\331\222\035=\370>\225\275,\224\320\274\205i\236\274\261\227%\272\264bU=:\000\227\274\204\261\276;G\021\006\274\225\310\214\275\033\216\302<\313\256X<\337\260\031\274I\321@\276f\250\001\275\243\340\246=\234\371V\275\034\264\202\274\241E\021>Q\361\016\276o0\237<\006\313\245\275\334V\355=\261\317\207\274WR\n=\nY\364=l\303\352<\031\247\033=;\270\277\275)\177X\275p\262\256\275\247\245\034\276\252P\204>\330\322\233=\314\215\323:\347M\353\275\036\024[\276\010\177\344\275V*\225=\203Z\223;\r45\275\025\032f<\255S\274=\371\312\276=\351\313\263\274\355F\212=\211\3629<U\247\000=\334z \274*\333\376<\271\354\207\274\277\327\346;\2660\363\275\326\372\245\275\230OP\275=\200\261=]h\t\275G\246i=G\261\206\275P%\245\274\330Q\322=\346\277\263=\261\207\'\2754E6<%Qj\274\027\372\212=`q\206\275\276\377\327\275\035\363\002=\014)\002\276\234&\272<B:\022\275\323\021\345=\341\020;\275\232\346G;>\264\214;\230\312\025\276:\232\266=2\214\004\275\261n\270<Y\277\266=\345]\343=\355\t\230<Th\342\274\004-`<\0017\230=\353\255\224\275\004&V=\337\201\253\274Zs\313<U\3503\275\365\376[\275MK\327\274?\312A\275\310P9\272\362]\217\275\352\t/=X\2226\274\324On\275\251\177j=\036\\\010\274\322B >q0\005\275#{\223=L\032\210=\347\356\313\274L\006\217\275\246\004-\273\375\267)\275aS\241\275\300\322R=\253\257\217\275\201\240\330=J\353M=:\366\206=\320\305V\274\354 \302=lj\270;G\350\001\276~{\374\275\326w.\275\026\373\000\275%\222\024<-\337\023\274\377!\273\274\323Pj=3v%>\251\003\321\275\033\347\311<\367\023\256\275\214\361\206=\372\362;=\022\201\251\275\356\216\227\2752\035\035=\244c\301\274F\tY\275\352\255i\275.\341\355=\222\342\310\2745\206.\275\013`\007=Ka\320=\373\333d\274\316T\000\276n\265m\275\332gK=\030`\346=\375\\8=\317\017\346=<\310\310=\261\360\211=\"\227\242\275\324d\335=\026n\034\274\305\204\205\273\205\236\254\274\262\204L\276lA\032=\000\275\037\276\030Y\301=6\371\356\274\314\006\265=\371\361\212\275@\317\033\274\262\232\323;\344\305\363\274%g&>\313\227\355=^K7>\t7_\274\275\251\n=^\033\257=\345\216\300\275\307\274\310=2\261\034=\257\001K\274k\343\025\276\013.*\276\311f\371<\t\327\274:\326\377\201\274iH\354\273\236r%=w\272\372\273^\020\013\275\377\037\260\274?\262*=\267\244j\273{\321E\275%\215H\276\225i\214<# \016\276\312\261a=\222\307\263\2750\252n\275P*\005\275\262\215\232<:\204\267\274f\355\232\275u\344\216\275\240\322&\273\004\306\314\274\241\244I\275\356\3644=R\352\321\275=\375:<\345\216%\275>\264\240\274}\325^\275_\211\253\275\335\0356<\037[n\275\271\002O<\3544\230\274\31305\276\301\001\265\274\216j\246\275T\360\212\274\315\346\213<<\220\317\275\236\332\271\271r\003\254\275u{\247<\357\261\n\276\232 \351\275_\344\001</\204\337\274\002\246\256\275\2164\006\275?%\316<\342\377!\276\233\367\271<\037\034\321\275\305\323h\275\273%\375\274\002\340\024=\'g\005=\216\0163\276a\257\207\275E\212\225=\353-,>p!\337\275zk\226\274k\0325>\375\360\353=\365\274\241=C\005\304;yL\007\276\204\273\001\276\001\315\307=#\241\224<0\241\237\275I\306\244\275v\337\276\274\351i\306<D \234=\200\2317\276\036\360\220=\317\326\202=,\363\013\276*[\262\274Cn\327=2e\220\274C\203O<\024_u\275\207]\017=_\301,=\300y\231=\030\270Q=\245\177\333<P\237J\275?\3720\275\201\272\265\274~\020\001\275n\210\024\275\262\277\203\274\316X\222<%\020^<\016\n\271=\265\223\235\275\370\007w=\006\216\221=\251\377\314=\237\027r\275\363\326\226\275\366\325N=\224K\343\275\005\256W=\026\3754\275\r\271\216\275\303L\224\275p\311\273;\245P\372=\263\313\262\275[0\021\276\224e{\275\276J\332=\231\362\273\275\024\001\231\275\321\006=\276E\312\256\275\344\036\343=x\323\267=\267\314\353<\265\205\340;8\336\314=\250\313\322;\221\200\253=\363\322\032\276(\205\210=\007\343\002\276P;\345<\320]\237\275\0341\320<&`\"=>\031\035\276js\217\274\335\265\360\275\177\003\345\275\343\371z\275\210\232\324<;\343\310=6\364H=@\376\210=\310\032\266\273\212\306\221\275\235D\211<\206\027D\275\326Yi=1\016P\276_\231\346<\rT5=\235x\373\275\203\026\244\275>\377\267\274\313\310\217\275\240\200\234=\373\353\301\275\272\275P\275\202>!\2749\310U\275\373\326\341\275\213\320\225\275&\221o\274\301a\203=\206\nY=\343\326\013=\326T\220\275S\'E;\335\361\300\275\251\302\270=5\234\016\276\252g\231\275j\030\032=\020-\372\275M\023\332\274\246\201\220=\226\014\272\274\257\202\332;\341\252S\274\017\242\332\275\021\277\362<\205\314\016>\347\303\201\274\347\250\236=\036^\317\274\203\300\317<a\310\267\275w\301\016\2745\314y=,\002\205<S\202C=G#\242\275\232\n\252\274\205\323\200=n\321\234=&H\023>{\270\232;k#/=\356N\217\275\3442\227\272\301l\224=}\236\340=\351b\013\274W/\001\274\037\213I\275\244-\201\275\321G\002>\212C\255=\342\274\244<\271j\002\276\030\374\351=\023u\270\274\334\367\027=.\201\342;\353\362\340=\366\324\325\275E\3630<\277\312\265<\316 \002\276;\256\262=\237\346\004>\032\255\000>\271%\n\276\251\246\"=\t\220W=;\332\251\275f\213D\275\250\340[=\270*}\274\"\035\273\275\357]]=\237=@=\355\264\365\275\013Y\034=\006s\214\273 \013e\275\005\364\350=(\nn\274:\367\t=?V\003;\330\272\251\274\222\303\375\275\312~z\274\022;e=\376!\006\276Y\030\256\275\'\262\340\274.\357\225\274Q\364|\274A\260\361\274\212\034E>\246\361\356;5\331\243\273\2566!\2745\221\325\275\341\236\336=\335\260v\274\356B\362=.\rM=\222!.<2\344,\276\030\033\002=\375\263\250\273g\371\303=HY\302\275\315\343\r\276D{\006>%\335\213\275\227\211\237\2737S\201<\213\'G\275\235\007\265=\"G\r\276\201d==\365\263\026\276\322\214R\274\340\202\273<[--=\306\271\272\274\t/-\276d\336\003>\232 \310\273\r\202N\275\303\'2>Bjg\275\247z\355\274\326H\250\275z\241b=d\216\000\275\025\342\333<\240\364\201\275-y\262\275\'Y\375<\267\261\002\276DV\254<\264y\333=x\0212=\262\302\342\275\027l\330\275\342\007\225\275CLV\274\0325o=\257]\005\275my\314\273M\261O\275\031\023,\276\366^\242<G|I>o\026\017\275\225H\254=\306\264\321=\235}6=\315\243\375=2R\270=k\317-<G<\214\2755b\256=k\244\177<Y\241\355\274\010\264{=-\260\010<\220FT=\243;[<\372\002\n>,\004\262=\014(\315=\275$\002\276\204O\301=#\2220\276\241$\325\275\205E\361\274\345\255\r=\363\241\003=\221\013\242<\347@O>\032K\311=\273\302\371\275\037\362\341\274eFM>\r\323\276=\310\203\234=U\216\"=\333]a=!d\n=\350\006\247\2751!\217\273\033\003\217=\347\320\204\275;\320\221\274j\351\005=\024\236\026\276*\226\200=\370\322,>n\250c=T\303\200<\010(\004\275Bo\257\275P\027\033\276\210`n<:\006\271;\343 ,\276\337@\206\275\355\375|\275\255!\351\274\022L|=|%\032\275\034f\010\275p \225\275\022Uv\275\246Q\262=l\213\226\275HD\001\275\n\004p\274\227\350\374\274C\340\312\274_\002\262=\013\277V\275\262\225\275=\326B\216=\332\021\215\275\260l\034\276,h\025\274\31317\276JEa=3\\\017\275]\244\243\275yW]<i\rn\275$<\037\275v\301\305\274J\n\222\275w0\271<\202x)\275\234S9=\036\022\340\275\000I\370=\357\243\240\274\200hK=\002\367\204=\233\260\272<\000o\301=\255\223\303=\255\307J\275r\350\275<\030\2050\275\334\210!\275\321.\221\275\0178\346<a\021\322<\362\336\314\275e*g>rb\250=\232a\330=\n\310\n=\241\300\324=(0i<\244\022\200=\221\203\334<\265\037\331\274\020\203\371\275p3#\275\247\365\370=rKl\275g\363\232=z\232\240\274\357L.\275\334\273\220<\357;\212\275\313\250(\273\364\341c\274m\"\323;\021\016\276=\232\370\037=\244\213\225=\351S@\275\353\334L>\337x\255\274n\265\246;\234\250\225<2:\325\275\356\251\220\274\247\031\326=\360fI=\2500a\275_c\221=w\020Q\274\374{\327=\224\267\206\274\345\356I=T\2705\276\201\260*\275\3756$\275\317@\207\275F\261\274\274[\375\234=c:\206\275@\330\220\275B2I=\334~\255\274Wi\035\275\226\264\036\276l\343r;\372\213\200\275h\005\214=\213\026\235=\242e%\275\007J\304=\276\242}\275\301\305\301=\2655\271=\350!\260=\273\315\342=.s\241\275m\267\032=\010r0;\242/\215<\032\357\220=\222\035\351\274\356$\022=oS\210\275\344\213\261<B\247\303<\230g\014=\273^\033=\323\033\\\274e\301\025=\277]\002\276\035\270\260\274\352u\216=\260\374\275\274\276\3413<\3010\211\2734}\366\274\351\036\227=\\\307\034;]t\237\274\004\031I\275:h\367\275\272\322\320\275c|\023\275\371J5\276\367\337\001\276-\333\356<\001\342\226<\345\362\"=\244\220+=2@\257<\376P\343=\007\275\006\274\377v\230=\323\301f\275\006ao>\353\204\023\274h\275\032>A\246\251\274\211\3551\275\007\337R=a\276-=,\222\331<\\K\002=\210\342\200=#r\\\274\021t\227=\360\033\226\275=\211k=`\224\213\275\003&\036\275\370\nU\276@?\242\274\366jv\275{\344e=\257\373\312<.\213\244\275\017\367\022\276\030\264\346=\371L\306\275`\266\013=\236}\210=\244\020\020\276\326u\207<\326\372\316\275\220\250\007\274\223\276h=7\313[=^\227\005\275\305\307 \275\352\237/<\317\020@=4\037\026\275O\014\210\274\213\303\022\274-\343\005\276n\371\235=\020\351\'>\356\027\231=.\250\366=\023\025<\275\033C\204\274\r:\031\275\033z/\275\014A\344;\364\200v=yy\017>)*\004\275\375 (>2\005 \273\252\373g<\014^\266=\256\2625>\311\361\r\274\247k\307<\241\273\256<\375\010\230\274\256\312\000\276\257\252\267<\226\273\263=\251E2\276\345p\344<CL\377=H`\304;\024\3134\275\276o\211\275\334\224\202<\374^ =\323e\322<\220D\247<\3375\360=o\004+=\023 .\276G\252\256\275\232\340\270\274v\267\275\275b$\313\275\336\030\037=\353|\031<,\311\000>\226\024(=\253\255\301=\324{F<`*\320\275\257\032\246=\342D\r\274\374Pn=M,\330\275\026\314:\275\021\276^<\236Y>=\314\031\232\273}\224\226=kh\n>l\250\353\275\316\222E\275D\3315\274\217\320\206=\314&\232\274\277\240\305=\350\222\005>\325\214\375=\232i\301\274FG>\275\302\346s=T0\"\275\357J*\275,N\264<\344~\250=\326s\341<\367\223+\274\326\0022>$a=<\311f\312=\021\'\241;\253>\030>\333\264E=\220G;\276#\224\030\2746\240\331=\215`Q<\247C]\275\255{\307;\3125\255\275o,\212<;k\241\274\225\265\307=D\300\034==-\027\274\202\342U>\364\323\324=\211\223y\275h\n\245\274\337\350\022\274\311\177[\276\247\027\234\274`\347\323<\330\014\346=\035\303\330<S$\200;Qb\360=\373\026\014=\257\325M\275P~\033\274C5\331=\303\375\220=\373nu=\273%`=\224\336\206\275\336Y\315=)\264\311;\207\226\306=\216J\030>\322\367\206:\257\344\002>\216B\010=:?}=t|K<YBY>\334.\220\274\206a\241\275\010\333\203=&e\014>\241\240\232=\005\274!\276K\017\t=\274(\216\2754\312o\275\007\312x<,\370\245=g>\264=)!-\275\0306\377<v\210\027\275\234\031\305\273 \274\023<\344;y=\006 H>\257\021\203<V\321\322=4v\274=\251;\336<\330\255\270<\353\353q\275X\374\361\275\330\232\273<\000\254\004\276\325\205\277<\326C~=T&n={\243\030\276\023\245Z=(E\264<\002\321\354\275\221\257\230=WV\234\2744\037I=.e2\2746ky=1\257\024\275\321\025\347\275nh\315=2\026\353\275\311Y\343=\207\326\336<0\376\326:\307\334H=DC\350\275D`t\275\037M\256\274\245c\201\274\350\346*\274lo\205=/\276\261<\010\205\357\274\003\023\203=y/\312\274\312\017\220\275G\211\033=\256\230^=2\357\322<\304\375\247=B\333\200=.+\263<EP\366;\000\204\020\276\005\002\211=\255\343\220\275\364AQ\275z\313\204<\016$i=8\261\031>\220+\257\275\013\340\362\274\tp\264\273\233\237 \276>\333\354:\217\250\357\275K\334D\275z$\377=\214\275\031\275\345\265\330\275.\235\t\274\216N\331;b\033\306\275{\304D\275\243\332z\275\230\266\211=\004\251\246\273\230\327\234\274O4\367\274\255\255S>\201$\005=N\205\220=\\/\n\275Oo\214=\341\\9=\356T\277=\310\313E=6\233\262\275C\2101\275P\324-\275\027/\340\2755\032\346\273\360\326\302=B\363\005=\302\033\231\275}\360\021;\273\247\373<F\232\036\275O\014M\275\txS\275%\277y=\356\tF;M\254\227\274&\350\327\275~\325{\276\376PL\275\306y\332\275:\327\351\274\353TH=6\006\332;l\217\367\273\247\003\307=\260d\242=\332\364y=\247\247%\276\002Z)\273y\005\002\274\022\222\200<>l\245\275\"\204\006>(^\004>\204Y\231\275\314\211\273\275a\257\000\275Y]\341\275pep=I\235\024>2X\266; /\321\275C\253\372=2w0<$\236\263=\004F\024\276\310g\254=u{\233\274\264S`<2\232}\275\225\354!=\322@\r\275d1b=sp<=\350d\333\275\302-\263\275\244\014\354=\362s\260\274\037~*> \361\r=\240\036A=:\330\216<\335\234c\274\342\261\207\275x\250\345=\236:\247\273\207d\201\275Xi\036>\262\350\217=\316LU\275\211z\375<\341\0031\275\341\331\254\275sS\303<\006\310\034=F\247\200\275RVh\274\0013\242<\222\346\025\275\356u\277\275Y}\010=\014+\323;!j\001=\203r\341=i\342\333=\273\345P=\026\352\035>5\330V\274\303\207$\276\003\213\026\275$$B\275\376M&\276\324\231\275=\317\366J<\027@\340\275\3660R\275\311\253%\276l\3713\276\t\257x<t\365\251\271\354\261\035\276\177\356\250<\214\266\321\2751\254\035\275&ZY\274K0K=|\030\230=\235\277p\275\n\t\007>&X\247\275\331Q\272=>\377\373:Q\225@=\265q\365=\225\352\362<|\242d\275u\210\370<K\272\013\275F\255u\273\355\346\326\275\006/\333\274C\034@=\004x\325=BHh=Y}\377\274!\306\212<K\303\271\274Z7\277\275\035V\206;\002\301\n\275Y:@\275\351<\'=\324\210+\275\331%\221={\350\373\274\220}\037\275u\017#\276\357\276\215\275>\347\304\275\335\330j\275\376\t\326\275\027ye<\201^\003\275/\246\233\275\357\005\275=3\022\005<p\267\313\2745\327\230\275_\304`>\030\273\252=\236\334\301\274\201\\\014> 12<F\014l\275I\010\331\274&\343\336=rf9;\225\244\320\272\006\205\033=\362hd=\255kn\274\200\311\\\275\203-8<]:\324<?-?=g<\324=\013d\021\276\223\244\237=0\344\273\275\027\350\360<\013\343(>[\"\255\275]\371\235\275H\257\207\275GT\342=\350\364\005=oI\313=\237\177\322<\203\200@=v\343N=\234\330\234\274\353xE<c\303}\275J\021\233<\177\036\344\273c\305\217\275\000\223{<\225k\335;\205\355\236\275/\307\002\274\342\023\r\276\377#\230\275\354\037\244\275\240\356\013=\037\007{\275\t\227\021\276\035\341`\275*e\323\275\035\334\356=X\306.<\361Z\310<\275\315o\275:&x\275M\014\376=+^!=\224W7\275\220\346 \276Y\024\020>\022\205E=8\307\020>\352@3\276\001@e<\323\374\r>\2758r=\312\271Y=\307\202\005<\341\214><\300wt<\225/2\274f\325<\276\221X\337=\376\312\335\274\323&A<xO\271\275\3621\274\274\204b\334=\376\351\370\275\251\013\373\275\201E>;/\3222\275f,\213=\\D\253\275y_\204<\302\375\330\271\352o\'\274\030:,>\263\213\031\276\202\210\247\275S\037q=[\260\215\275T\017A=\016^\237\274\017\272\306<\354N\235<\345\272\232;\246\344\302\274\366j\337=\035\306W\275\247\003X;hy~=\236I;\275\307L\255=\305/\266<8\254\267;\"\247\034\275@LX<1\226\216\273\370\213?<\276\027e\275r\303\224=\021\200\'>\252J\221\274\031\303\3658\261\230\347\275\275\345y=\331\036#\275\323\210\035<w\032\216:e\364\345<a\\\2459}|\030\275@ f<\002\331\006>\033#\331\275\026w\374\274<\\\356\2748\217k\275/\341\226\275UPc<tn\333\275\026\002i\275F\266\355\275\216\347\207\275\255\020\235=\252\335\332\274\367\212\213=\202\003\373\272\263\260C=\212\224\354\275\200\242e\276\312a5\275\260J~=t\035\000=\001y+=\022\324\226\267\326\252\201\275\035;\347=\227\333Z=\261?\253=3\001\320=f\371\247=\253h9\275\216^\206<)\310\235<{O\367\274\275c\230\275H\007\276\275\321\237`\2743!\332=\204s\242=\036\357P\275\231h\215\274|\330\002>\346\366E=\002\325_=\037\334\034>\311Rw<,\016\\=\206o\253=\353\000E<R4l\276^\333\263<\"\210\016\276m7T;\351r\323\275f\252\213\275(\235\321<]\264\214\275\267\242\240\274\224|\237\274e9\230=2\363z=\272d\324\274}\247\242=\327\231\372=\222\037\372=\211\374\246\275\037\353\r>ff\022=O\014\004\276\200\336M\275\241E$\275\266<\202\275\215\223\235<\220\203\253\275\357\245 \2759\265n\275\366c)>P \227\275\303Z\200\275\203\215\325\275\0320\n=O\300n=%\330\317\274\t\"\212\274EiL>\022vJ=\346^\315\274\244\374\342\273\306\223\314=d\275\321\275\235I\272\275\035\'\234\275\200\243\010\276\313\226\205=\024\275\014\275\305BY=\212\355\271=\236{\205=\253\227g=\236\275\021\274\2753\306\275\322j\352\275q$\271\275 r\363\274#\346:\275\234\030\224\273u\271\021>\235_\017= pA\275\2303\">@\356&\275\030&\010<]\307\220\274\375\343\304\273I\n\345\275\256(\315\275X\233G\275\362*\001>=Q\200\275\271\021:=\257\345@=i\301F;\255\343\031\275J\306\226\275\001\260\266\274-\207}=G9A=\035\3468\275U\253\003=\251\361p<\365\332\301\274\267\t\234=\016t\345\275d\206*\276\036\224I=X\273y=\265\365\017\275\272h\272\274(\340\021\276\272)\215\2750\035\325=\'\335V\275 \250n=B\242\277\271\263&D\275f\277\017>\342\"\230\275\357\330y\275M\276$\272\375>\277<\233\262\234\275\356\205\272\274/\333\344=\2332\264\275\362\224\036>@6\261\275\202;\340=LN*\275?$m\275a\317h\274[\024\264<\367\244\271<\251s\273\275\253\331(>\257\266Y\275N\262\204=A\361A\276\264\366\262\274\360\"\254=l\032\302;\356\226B\273.\345\003>\251\364\376=x_\236=\t\"r=\372>=\276\005\031\306\275\221\3704\275\027\024\371\275\265\363\356\273\266\021\302\2742\371\022\275\024\222\264<j\314B\275\331\307>=\201c4=Y\376:\274(\313\256\275\262v\305\275\017\013\371\274\224\240\321\273\331\253:\276\332\305\252\275\002\'\301\274\t\220\265\275\357\014\214\275\372\376\215=k3\016=\272\323\311<\366\323\332=\331\262\r>\211KN\275H\252\275=j\313\350=\255\332\242\275\346K\233\275\276k\307;-\236\350\275*|\323\273\360)y\275\235\211\313\274I,\n\273\276\267\t\276;?x;\022\252N\275\336x{\275\224\227\031=\327_\260=\3448\241\275\322\305\017>\370\3343=L\213\257=\335\237\345\2750\017Z\273\256\026\276\274\366@\177<\275\031\305\275l6P\274-\243\257\275\013\255\024\274\253%s=\032\352\213;\244\023\226\274b4&<,\346\305\275\"\243\030<\261x==\235\004[=\304\232/\2756\'Q=\366^9\276ku\375=^~\255=\3322n\275)Q\211=\321\225\001\275\230\232\200<sC\346\274\304\305\205\275\370^\214;\322\341H\273\026\003\022>o\263\216<\272\251.=O\355\256\275=\355\251<\366\212H\2750)\244<\342&{=\355Q\001>5&\376<\352\215\307\2751\202\036\275\266\255\220<\267\207o<8\304&>8\3338\2753=\365\275\030\374\013>a\254\373<\340\037\331=U7:\275\346\270\360\275>\317\322=\332\305\327=\246N\350<\261/-\274\332\017\215\2749pZ==\211\203\273)\237e=SM\210>\207Z\252\272\231\355\253\275\004A\304=\341)\361;8p\000=\360\274\000\2749~\030\275z\'F=T9\303\275?\263\242=+\200\202<z\323\276\274mg\323\275@\267e\275\364\005a=O\366\265\275\225\327\247=\217\306,=T2\242\272C\014\334\274\325\000\220\275\026N\263\275\002U@=\204\026^\272\2014\226=\274\365\362\274\352RL>q\025\207\275\254\\\303=[G\324\275!\001\263\274\306wM=w\020\026\275\312\321\357\273\241\032V>)H\326=jF\331\275\204\270\351\274o\264\270\275\3175\302\275\210)\001=\\m\026=EM\263\275\371\373\375=\362\263\234\2725\260\354\275\375\210\010;\363S\021=\'\267W\275?\030\354\275\r\310\007\275\327\357\342\275:\313\203=\331\024c<\253\010\266\274H\354\244=?\351}\274Q$\232:kt\271\274\337\215\204;h4A<\305I\033\276\372\020-\275\177>F<\372\243\014\274l.\210=\256\330\227<r\273\223\274\223\210\375\275#x\324\275]\364P=\005gk\275\3225\236\276\213F\301=\273\317\032=\013=-=\376\372\222=\310K,=\307\212\005>\t^h\275&\037q=\257\026`\274\030L}\274\241!\370<nm+\275\226%\317\275*|o\275\211\3545\275\261.\210\274yv\010>\350\366\375\272c\222\272\275\375\315\266=\347& >s\027-\275^\303\014=\032\216\220\274\250L\366\275\373\320\342=\263\363;\275\315AT=Q\\J=\264\021!\274\027\225\244\275x\357D=rx7\275\301\227h=\363\275\235\274#c\370\274\272I\214;(\006\234\2745\037\227=\224\002\225\274\272\016\001\276T`\021=\374\326\r\275\317\256A=\023\014\205=\343\321\276\275x09=\235q\023;\351\272\321\273\223\334\333\274\005\300\317\2759\357\"\273\210\027U\274\334\274\233;\023\231#\274\326\331\253=\004\211k>\232&\000<\246\215}\2750\276\037>1\204\023\276\362\352\031\273%\274%\275*\377I>\r)J<\347_\246\272\374v\031\275\375u\314\275\002\262\374\274\353\364\366<)l\370=\263\034\222=\"\371\370<\315\037\237\272\353\346\373\274\242\345\215\275\370\353\n>\260\260\225\275\320\350\001>9\215 \274J3\236\275\376\2116\275\032s5=\357\205\034=E\037g\275\343#\006\275V\016\005\2755C\\\275\273m\211=[\014:<\242\326\203<r\'\372\274\320pY=\336\320\030=\342\353\210=\001F\324=\211\331\212\275XY/<\317\233\010\276\240\275\016>\221\026W=\245\261G\275\\\020\320<\346\003\232=\206\302\000=>]\326\275\233\347\030\275\2465\364=\371\355,=\023\003\222\274\306\212\277=\035X\301\275\231g3\275\251\322\226\274db6<\000\316\177\273\275\361\360\275\361\260\303\275v\360\200\274*\376\344\274I\366\004\275\231\334\235\275eh\t<\253z!>\235\244\276;\3132\274=^\263\203\274,\014{\274\374^\373<\305\244v\275[\311#=\313M\265=\306\306!\276\200a\010<\243\340\312\275\261\032L\275;\224;\276\364\271\017\275\r\016\375\275Z\374\026>\326\202\266\275\242Sn\275\267\254\t>\2722\274:\200\341\016\276%\177]>\027\247e=\271&\357<-\360\201=\001*\304=\024T?=\002\265\220=\363\222\014\275\256\2412\276\355=\300=\270\275\027<H\374 =4\305K\275\220\021\240=S\330\306\274b\234->w\305A=\374\002\377<\230\376\366\274\352O\010\274\302\356\034\276\220\277\006\276)\'\253\275H\247\311<j\034x\275\nL_\275\305\335\227\275\214\016\340\274M\263\330<\253!9=1\205\245=\377$\370\2752\200\025\275_\037}\275\201G\227:\243\231\312\275\277\010\215\275\336\241\341<\231\255[=\262\251\032>&\002\210;\372\273\311=\210\325W<\025)*\275\343\241*=\024\022(\274\324\007\212\275\351\314\000=\241\333\372=\207A\320=\225\341\276;\\\227/=\323\264\217\274c\002\336=B\361\377\274o\033\306=\373<\210\274\324U\202=LZ\323=+\350\367\275\354\247\254\272:\336\014\276+E\025>\354>\363\275\266\201\247\274\334\237\314\275\312]\272=\306\231\350<\344\203\205\275\206]m=\300\341\341<\"8\313=\342k3\276\036t\337\275I\376\254=\216R\276\275\271\341\004>K!A\275\307\253\362=\357l\315\273\034\245/\274F7\000>\261C\026<<\352\320;\242\004\246\274+x?\2740\257J\275[\004.>\2563\246=\201J\261\275\226\375\352\275\254\364P=Wz\020\275_\314\312\275\026=\323=\034\243\207=\242\026\323=\261\274\237<\353\r\n<\247)\312\274?hg\274\361]\006\276)%|\274\347\363\020=\216z\026\276\033$\300\274\036\242\314\275\250\027\203\275\277\024N=\\\261\003>\330\343\337<`\357q\274Qa\272=\300\016\313\275\017\362\254\274\016\313\312\275\006\213\211\272\246\026\217\274\245\243\007>Q\215\360\274\347\333]\275u/\014\275v\030\031\275\253\000\367\2756\360i\273\362\3304=I\340\261\274\372K\013\276\005\216\200=\227\317\330<\257\316\324=h\301\027<\tU3>\273\343\013>\364\030\211=\023q_=\212b\357\274X-\350<\272\322\024\276*\247`\275g\272\017\275U\002-=M\317d\275v\251C=\231\315\345=\340R,=\266\245\206\275\310Q\261\274\223\016)=\301!\306<pys=yw\210=\266Qr\275\001\324\311<Y\372\222\274Z\3715\276\203d\325\272eZa\274\265\315\2358cF\214=n\204G\275H\307-\2758{\262\275^\205\236\274\371\226\211=t\344\250=\2176\010=[\001\006>\220\336\275\275~3\342\275\304\376\207\275\346\364\303=9\\\213\275\300\005)\275\265\207\013>I\332\354<\225Z\371=\323\224\215=\314#\235\274\nTd==\336\356=S\237\'<\274\235\244=\006\032\377<>\027\345=\035\035\217\273\030\367\203=\261\250(\274\324\307\331\275\334\343U\274x\023U\276`\367G=\367\370\273\274:\213\216\275\n\212T\275\320`\024>\326$\013=H4\350=\267\374\177=\020\374`:?7\227\275\3348\031=T\2134\274\207\252\252\275\303\247\364\274\276Xz\275F\277\036\274Y\240\000\274\232ie=\221\177\013=aP\002\276\030\226\\\2759\034\376\274\203M\026\276\326d\361\275\272A\276=\366\325\253=\336x\226\275\2659\203\275u{\355< y\210=\001!\260:F\014\241\275%\244s\275\321\240<<\365\177c>p8A=,\305\010>\373\261~\274B\036\377<T4E\274!\t\275<\316\330\355=K\253L<\314\317\277\274\346\006\205\275{\276d\275\234p8\275B#:\271\350\320;\274\2440T=\245j&\274\231\240\272\275Vyi\275\220\036\251=\261]\025\275i\321\217\275V\267\261\275F\215\035<\252\303,=\026t\205\275\302^\302=\373\230e>\357\345$=\310~\365<\354\334\332\275,m\340<\301P\226=OFd\275M}E\275\304\254\247\274O\325 \276\332D\341<\255/\356\275\327\333\344\275y\346\333\273\006\177K\275\352\354\215\275\2501\351\273\t\264\363\275Y\260\033\275\250.\302\2757A\321=\377y\377\275\354g\331<DGP\275\001\345\250\275\212\325v;\013:\324=_x\225=\332\027\362\273\255\214|=Z\314\200=S\213\311\275\037-\266<\216J\310=\3559\267\275\303\254[\275z[\327=7\264\255\275\032A0=\033T\235\275;\353?\275d\241\251<F\316Z=Xrf<\307T\022\275\250F\027>\262\275%=\211\260\334\275\356\037$=\227\\\204=\014?r\275v+c\276\216<\320=\357\365\232=\025\304\253\275\315\371I<\001\357\001\276;\220!>\373H\245\275\033\370\323;P\223\313<\177>\271\275\326\025\262=\224\0338=\270\025\033\276J\362\203\274\000\353\213=\311\215\247=@)\240<\027\233\200=\031<\022=\034\367\220=\346\n\275<\035\312\r=\363\237\275=\221\312\246\275_\266\001>n\342\017\275\260\032\222\275\270\240\356<\004\373\343<\027e3=\375\243\033<\325U\263\275\323\210\007\276r\221\311\274\272H6=hEO=\246\007>\275\257s\002=7\036b\274_\327\21399\232\370<\224\036U\275C\205&<\305-\t\276\377\210\027\275\017\026\264=T\355\352\275\016Q\210>@\304\230\275\350E\271\275\264\364\207=\270\025\035\276\227\257\254\274\033\302\333\274\306\021L\275\210\222\210\275\027l\242\273gE\303=\362\022b=/T\226=\316\3752=\3574\217;\221)\372<\t\324\335<<l4\273H\252\304<\370\325\355;\006|\203=XZ|\275$\204J\276\337\227\267<\270\232\014\276\232T!\275W\035g=^\007\213=\312V_<GD\314\274\3569\216\275?Q\033\275x\3622>T\242O<z\333\247=\206[\374\274f\243\353=\240\326\032\275\342\375\332=\340\270\310=u\237j\275\300\253\327\274\334C\231\274\022\227\255\273\033\220\326=\"K\010\275?\221\266=Z\347\014=\276\306o=J\314\201\275\342\n\277=\253\340\010\275h\325\341<\327\010\026<N\227\216\275+\260\215<\304v\316\275\262\373\275\275\3477g=c\205\310=f\252\177<X\230\250=\330\217\030>\032\357\032=\344\355\025=\205\350\237<\351&\211<\007e\027=\274\005B=\\;\026\276\312\271\222\275k`R\275\021\035n>:y7\275\325\001\204=Bs\010\276\022\361\320\274\236#\251\274\313\277[\273]\221\300\272B>\"\275\3510!\274=\345\344=\261\215\263\275\300\020\311\274GR\317\275d\322\372\2756Z\036\276\025N\233\2752\314\265\275\3276J\275\306\037K=t\222\250\275\033\\\377=\024\003>\275\300\002\204=\204K\376\275\n.\243<T\017\231=w\2738\275\031,\"<\3668\362;\372f\272=\342$c\275\323e1\275e\316\037\275\001\244\371;\034X\246<,:a\276=\004\307\272\236[\000=}{\034>1Ms=\331\3350\276K\3169;4\035\262\275]\241`\275Q\220\364\275\001\274\270\275\355\271~\275\025\376k;\320!\035\272\272Dn\274\364\034\027=\0353\314\275\204\"s\276O\216\254=1\2474=\211l#\274\212\tA\275,\004Y\275?\337\252=\314\205\013>\004\305<\272[4\302<\0052\001\276~ON<\034\001\300\275\2124\224=\232\016\263\275\2774\222=\000W\001\275\321\0244\275f\275\004\275\276\361\343\274nb\237=\360\205K\275\334\334\t=R\360\"\276\360\277\214=\0211h<\350\255\325\272\'F\031\276\371rt\275\030\227v\274\322\307Z\274M\334\202\275\274\230\373\274P\375\r=\323\004\261\274{\304\004=rH!=\270\n,=\332\347\367\275\340p,>E\234\211=Z\213\320=\"\021\252\275\253\246\023=\370\254|\275\224Wt\275o\211\024\275\337\307\030\2748\257W=\375v+\275\214ZJ=7\005\"\274\327,\255<\306aA\2759\367\220<\362\014{=\311N\207=\341a];\347)\026>\371\367\002=S\302#\276R\366\360\275+<N\274&0$<\374\327C=B\020\203= >\215\275\331\205\262\275\322V\374\275\034y\231=|\350\221\275a\373p\275\00064\275\224\224\220\274fB\3269:\037x=\205:\002<\316\253\017>P\301\001\274\213\220\206\274\220\342\263\274\302e\224\275\201\270\231;\025f\226\274v\262\330\275\375V\223<\242\0078\275n\242F=\226\030S\2753\020g\274\324K\321=\3513\220=f\r\250\275Hge<V(\247=\3008\363\275\206\037\260\275R\312\023\276\310y\234\275\375x\325\274\2629\275\275\315t\332=d\357T>\302\341\033\275\337\221\217\274\246\326\215\275\000\271\355<\014\301\004>\201FG\275\274\377\016=\351\317\017<\005.\221=\377-\030\275\333/1\276\343\271;\275i\356\315= \022Q\275|\005\221\272\263\247\355\275\254\250\t>L\317\\\275\177\231\013>\365\027\270<\232\257L<-\333\232\274\312w\224=\337\235%=k_\340:\273\3760=\177\341%\275\202{\302\275\363\260\270= \204\314=\0253\221=lT\"<\250\342\210\275\324X\357\2759\256\247;\r\n\370\275yM#\275\356q/=~\314\351=\325j\022\274#m\226<h\213\243;\3038%;\321\363\003\276\371\031\362\273 |l<VQ\371=\324\352\254\273\t\350\003=\222\251Z<\202ev=iG\332\274\241&(\2767\237\356\274^\250x=\027\334p;u\0373\276`[\036=H\224s=\307&A;\225W\320\274\276\234\271\275\230#5>\270\200^>FX\031>\274\302\177=\302\233\315\275\"\311\361\275\224\246\263\275k\357\273<\254\273\201\275E\247\211=\230]\372=\360\204\204=\214/>\275\026\237i<\206cF<\tb\337<\352\227@\275\002\213\302\275\010u\001>\225\357\201=\271\265G<:\217\276=Y\034I=\036\327!\274\252\',\274\375\\\314=V#\r\276\010\300\312\275\233~^<Q\251\321\275\324a\203\275\312\016\256\275\333\255G<\207\024\256=\016\251\035>\021M\177\274P)\211=\336\031\274=\254v\036\276\244\245\030\274\261k\207\274h\326\216\275\217=\220\275\343\300\210\273\306\304\361\2737\0253\275)C\212<<S\225<\305\206\325<\363\253*\275\220\024\360\272Jq\247\274M\366\311<\375\207\376=^\212\236\275\357\204\016=\320%8=\020\351\262\275\300\371p\275\005\373\321=\n\247J\276\0079\223<\347\256\212=\r\373\334=\210\327{\275\267I\215\275\036/Q=\212\027\365\274@\316\003\275\3007\032<~z\276;QBZ=\236\312\221\273\2215\221\273P\010\032\275\345i\220\275\257R\346=\202T\035\275\274\312\002>\335M\331\275\030Q\000;\275G\031;%<W\275\352\345\224\274\262\244\221=\255\033\243\275\365n\177=m\342\304<\255\243P>\233\327\003\274\240Q\014>tr\336=\324\310L\275i\302H\275\027\n}\273\354\035\013\275+Z\000\276\314\257\000;(\351K\275\252\223j=\353\270&=\331W\270\274\002\000\254\275No\245\274\323\333\260\275\365+Q\273`\231\002=Y\340%>\324\354/\275|\276[\275\355\205\014<\220\010\265\273Lpu;\313\264\350<>\230\314=M\317\377\275`\226\225\274\326\303Q>\355{A\276\317\200\005=\031\243\030\276\236l\204\275\275\202\244<I\244\230\275\322\037\000\276\007\230\246\274\250.\250\274\022\247x\275\222L9=\001\242\213=\303\302\324\2750M\242\275\216\021\272\275>\236\336\275\313i\247\275\037\373\234\274\016\266\010\274\214\035\374\274GWb\271\342\201c\275\321*L>\371\236S\275\257\237 \275\212\244\200=\360\014G=\365b\002>\267\315\005=3\354}=q\371\327\275\365\007;\274\001A\203\275\354\302\200\274\026\215g\275\366\316\214=jh\266\274?\356\214\275\267X%\275\263\014\311<\016\262&\273&\203\273\275\332T\265\275\231\235\014\276\002\021\310;aFS\275\255\346\204<\n\257\022\276\303\307\006\276\242\256\004>\247\215\357<\257:\266\275\323[\t>\247\262\337=!\236\217=J\245u\275\223Y\236<s\246j=\234\322\027=\034aP=!F\224=f!\020>\204\326\313</\205P=\367\313\002\276\264\223!\274\352\251\246=\221\372u\275.g\215=\327\263\304<\201\335\250=C(\270<\256\334\300\274G\224I\275\257\355\037\275]\0246=\"\037\027\276\3323m\275\231\t&>)a\000\272\377\267\234;l\226!=\322\312\217\275\205\205v\275\322 \010\276\022\372\275\275\375\310\360\273\324+z\275\364\307\232=/\330\213=\251O\374\275R\203\263\275\210nh\275B\300]\276F+I\275l\236\224=\316\372\241\275<m-\274v\363\274\275)\r\335\275\230\357\342=\036\010\006\276\241\343|<z\217\005\276\3000\021\276\001C\2317\035\2573=1\016\246<\311\204\267=\303(\327=\232\301\257=\256W\277\2740\301\212=R\0225\2747\306\024\275<\000>\275\243\376]\272\322j\274=y)\027\276\006}\245=\250\227\215<\231\265e\274\253\364\255;_\354\251=z\251\021\275\017-3=\0020\231\275\271L\320\275\024\352V=\342/+=\233\321\315=\275z\256\273\211-\263\275\007G\326\275\251Dr<\342\032\234<c\027\370\273\333\252J<]\271\004=\347p\222=\371\216\374\275\"\214\310\275\0010\003;B\343\304\275\265\235\356\273O\210M\275d\267t\275u\205\234<\222\300\354=R\026}=\021\260\315\273\271Q\364<#\325\273<\307\215\010\276B\022\244<OG[=\354C)\275\253<\366\273\013\014\300=\232i\237=4j\234=\006\301m=-\305\022\276\232;\300\275\205\232\024>$\2730>$\371\312=\300j\212<9&\370=tA{\274\253\223\305\274\004\371\003\274\210\235\276<\247\000\010=\212\314\270=\347 h=)s\211=`\336\023=m0\004>\244\351\372\275\274\356#\275\013\023\353=\007O\032>\265\301\340=~l\003>\334\274F=\306j\233<.\366\360<p_\255=/\033\225\274\177\225\001\276\031n\202=\367]\244\275\367\365\235\275\341!\005\275\021\356K\275\354\366\333=\330\201\r\275\036\244*\2757\375^\275\177\177\352=\210\336\330\275\230\264\335\275\3603\373<\377Q;\275\236\212\010:\022\201?\275\327d\275\275\356\006\034\275O\2152=\232\002\334=\351\'\363\273\235Y`\275\251+\332\275i\206\034\275\271w9<^\212d\276!\205\036\275\216\220k\275\272\226\351\275R\305\305\273\327\254\306\2755x\271<@\357\270\275 D\365<:7\252;Q\371\004>u+\010\275\261&\030\275Me&\275\301\236\376<\245\n\204\274\233\312\375<\016]\035\275\032\022\"\275\230\203\240=\357\274\254=\377\363\010\275\002\215R\275\221\3139\275KAy>\\\337)\274C+\310=\361T\333;\027eQ\274T\204\331\275m\233Y\275\327\336\363\274\256\317]\275\302u\354=_\203.\275\036*\276<x\233Z\2751A\261\275\254\327\317<\001\220\374=\010\213\356\274\315\244\357\274S\034A=$L\320\275\255\200\200\275\037\022\324\275\341\363\306=\270h\262\275\244\243\204\275c\2741>,v4<\367\315\313\274\336+~=\274\350\254\275\032\305\323\275\374r\311=\022\213\331\275U\206z\273w\313&=\241\257\211=\264)\200<I\230\344<*\037\003\276!\341K=V\204\352\275\302\321\345=p\237\330\275V\250\227<\3754>\276\020ll;\312x}\275u\375\244<;a\226=\373*\361=\221\216\013\275\223\336\321<\266\330p=\312\312\304\275\356\374\227=\361\003\361<i\355\344\275\262Kx<\022\241\200\276\273\373y=\236)v\275\014\361\n=\207~\022=\365\241\236=\320\302*=\341\263M=\271\330\334\275\352\"\313\275\227c\246\2750[\035\275wA\232<\376\"\217=ln\006>\024\343\021>\007A\201=\326\300\313\274\003\0331=\031\347+\275#\251\003\275\005\373\262\275\303h&=%\203\244\275\001M,>\231\201\322\273\177\214\264\275\276x\355\274\356\252\273=\250V\220\273E\332g\275\231\327w\275\357\366\303=T;\\\274\360\010\220;>x\334\273D\336\251<g\343\200=\362\007\260\273\372\363\031\275?\3129\276\001\272I<\321\014\016=E\2018\274\003\275\276=\277\335\337<;\207\341=\250\235\372\274\033T\367=\210\260G=\204\312\347=\323\335\227\275\023]\372=\267\221L\274\233\215\223;Uh\312=M\032W=\257\032o=\360\027\300\273\330C\221=\235\244\201\275\376i\334\275\207\r\245=I\234\207=?w\247\275O\207\001\276c\004]>\263W\250\266\213\365\273\275\210\221\315\274\006\212\371\274\024S\266\274\260\314\211<\256\231\267\275\000}Q<d\302\214=\233\311\273\275\221\332\276\274\214\031f\275D\270K\275\233:\354\273\304\231\016=\256\210\220\275U\036%\276\220H9\276\377{\036\275\231y\240<\322_X=\t\316D\275._\322=\276Z\257\275\305Q\253<\246d\232=\033J\303<\352\010\014=\216_\265\275\245\030\007<#\225\205=Q@\222<r\303S=\372\027\325=\323D$\275m\233\017\276\264\267V=wr\222\275r+\006\275\t}\036\275\206N\231\2743Rj\275\360{\367<\233\3029=\217|\224=|\351\343\274\345gr\275\205\326\002\276\340\013\212\272}l\275\274\266/\224\273\210\320\203<\321y\216\275\263\014\032\276\240}\247;\267\233\007>\031\265&>\246\236\257<\336\336(=~F\250\275\006\323\201\275\307\313\265;$e\022\274\372\347\331=\t\025\t\276\366p\253<\312J<\275;\354_\275\017\347\316;\320\017P\276\267w\205\275\343\365\331=\241l\266=D\033^\274lO`=\037*;\275\246\325\223\275\013\225Q\275\340\336\005>\304\242\227<S \343;\226c\331<\342\377\275=6\3352>\331\230\314\275\254\321#\276w\353E\275\262o\341=\337?V\276\343\326\341=\013\320\020\276\025:\264<\006b\270=\222\262X\274\"\206\257\275\203\232n:%\251\313\275T\023\370;\320\350\323=\217]\021\275G5\033>\023\003\226<\364\240\301\273<d]\275\202\361\373;$s\221=0\220\370\274\024\274\201\275\203+\237=q\220D<\2461\204=x\026Z=3c\035\2752^\'=+\314\t\276Z\314\033\274P4\213\274\366\002\225\274\002\t\244<y\241T\275\263{\301<\000\345\254;\232^\342=\232\007\\\2743p\270\275\304\214\215=9;|=\254`\317\275\320O\217=\325\232\361\274<\374\022=~Q\020\276\312\317\177=\031Q\362=R\003V=\267\316\350\2751\2641=\306\022W\275\312\345\021=>\312:\275 \265\230\274\351)\377=\3544n=\037\3447=5\030\024>4\376\245=*\213/\275\004\267\347=y\003\320\275\2656\333\2755r\027>^x\224=\346\211_=.\221H\275\344\031\005>\367\200\314= =\313\275d?\246=\346\277.;\244#\301<\223H\362\272\337\371\251=\032L\334=\236\033\362\274\235\276\320=\227T\007\275\363J\325=\246\3276;\243\0205\275\014\246=\275\266\234\t\275\007\345\275\273-\353\340=\354\026\202=\214\312\264\275\270\331\007=*Q2=s\035\273=\357\024\224=3\306\364\275m\252\"\275/\340\237\275m\332?\275T\361\332;\321\360\330\273\226\227\226=/\267\032>\250\230\336<\350\264\340\275\322YE\274\314\322\301=y\214\252=y\374\263\275\266\360\201\275\222\216\252\275!eP=\322\035\237=\235\221\266\275\253T\305\274\257\014\207\275\025H\221=9\"\020\2734\230\330<\027!\215=\305zT=\233\356\342\275a\336\360<\355\275\376\274G\363\270=\0301+\275\345y\266<f\335\360=\215a\213<\177\325\007\275c\177\010\276\275iL\275\3277\363<q\244\220\275\222n\373=\256(\017\276\003\tW=\231,\340\275\354I\223\275\027\364\306=<\352\336=\206M\223\275#\367\267=\236,\327=\373=-=\022b\227\275\032L\237\275Gs\222\275_\013\343\275\273)\276<\315dv\2757W\223\275\215?q\273\267\336\207\274}\277$>\232B\013>th\014>\314\' =\037\200d\275\332\217!=\242\323j\275C\215\216\275\355\226\017\274`\034\257<Z\022\315<#\216\026=\031A\377\275\241x\241<\317J\327\275v\372\346\274\351\325\236<\253\346\212=\270P\305=\375\"\326<\n\326&=\335\252\227=-\245(\276#\236&\275\203\251\353=\314O`\276\255\237\'\2741\241\022\275\212L\303<\031\013\036\276G6\346\275\370\301\027<\3645\266\275\316\032\315\274>#y\275\374S\332\274\230\341\307\275\201=\207<\230\227A=k\202\025<4\215\362<\354k8\274\304@y=\202\275\214<\007\371\212\273]Q#=zj~;\374\330\341=\336\210=>\314\222\352<<E\302\273Q\261\001>\323.)\274\361\n\377=\254\371~=\372u\256;=R\224\275j\241\221=\230\254\032\275$t\000\276w1?\2756~\233=-W\257\275a\230Z=\340)\207\274\205\021\021=\004l\330\275F\275\260;G\343\301=\225B\255\274I\331\217\275R\360}=\237\ty=u\306\307=$\2166\275\202\'d\275\274\210\247\2751\204<\275\220\253\247=\340\213\211\275\316\365w;\353\315\002=\331Wc=\017\216\240<9u\271\273dR\315\275L\367\277\275u\322D<\020\323D\275yk\266=\254Z\264\273\227[\037\276\350\230\177=c6(=\007\'\317<\360A\224\275\370\303\316=Z\037s=[\004\013\275t\250\207\274\'\331 \275j\036\205\275\031g\032\276\252\373\334=p\205\001>\001\342\331<\312y\342\275h\234\262<S2\237:^H\022\275e\t\355=\213\241\001\276\237RE\274\265\037\355\275\007\253\265\274`\033\006\275\315\023\371\272d\\\350;\0100\346=\005#~=\"\246\024\276\331z\200<\201h\324=\313\347\251\275\301\250\321\274\250\322\227:Zm\212=\376\307\372\275\025/O>.\300q=\342(\354\275P\331\014=&\252\351<w\036\217=M-\234\275E\240v\273O\003\345<\266C\'\275\277\350\321=:\240\230\275PD1=i\372\351<\223\207!=?n4=\010\373\266=D\025\265<\3208\030>\311Jt<\311\232v=X\013\232\275QHo=.z\031=0\364\031\275\241\037\275=\234\'\216=SaO<>\223\r>\347M\254\274\025\224\370=\200\302\004=\207\376J\275\347\323\332<\242\215H>\377\021/\275\005n6=\226\202K=S\353\224\275\355-\301=\010\230\023\275\240\356\235\275h\364\\\275\241s\256=\346^\241=\212\030H<\365\377\013\275\017\214\366\274L%\312\275\313\233\204\275\036r#>Mb\217\274}\027\013\276}7,\276e\035\300=y~B>\245\215\365<H\226m\275\302\252f\275\224\216\025>\300R\006\275\262\356\343<\321\376\274=s\235G=\026[\202\274\n\312\350;\212\377|\275\237\220\345=\276\372B\275\234\207\255\275.\344C=eL\r\275\241\320\323<\262G\307<\212n\220\275\367\277|=\351a\365\275l\"\267\274f\247)=\251\235\324<\0340\007>\200v\t\273RF\365\275\200\253(>!n\256<\245\243\022;\211\343C\275E\216m=\005\351\351=\242[!>\326\"\032\275\233.%>\347\366c\275\210TE=\325\265\344\275\337x#\275d\310\037=\341\276\000\275+L\031\274\342\023\227=\273\267\223\274xHD<A\251\210\275\361\353\023>\326\277\233\275\031\251\313\274\340$\242\274\354\375\206;sD\251=\300\305$\275\025.\034=2\205\206<[\205\327\274\343L\211\275\r\264\353\2730\306\274\275\312\253 \275\"m\364<\200\222\002\276/\366\177=98\216=\207L\346<\037\027\306<\261c\332=\217\341\355<t\205\324=\352\n]\274\035cL\2767\035\253<B6V\275\264\356\">\037\212\322=\3411\252<\262\301e=\005\327\013>6\237\230= \001\257\275\322m\037\276\265Z\226\275\365\322@>\177\r\200<\000ZC\275\275\215@\274n\314\221<\201\372\240=r}m=;[R;\365\236\210\275\343L\355\275\271\013\232\274\276\242q=\351~\327\275\304C\030>6\366[\275BKc=\'VR\274\324\277\n\275\021\207\376\274\251\024O=\371\016\363;\301\321\345=\000\016\231\274\342\247\'=\312T\013>\003d\326<\007\361$\275b\320\243<\220\0334\275C\332\252\274\231P\222\273]0\240=0\033\221=4_W\275\t6?<\3427Q=\027\252\266\274o}\016\275W\201i=\255g\354\275I\214\367;\221\354\231\275Ly\327=\230\277\002\276\316+\243=\334\263.<wd\245\274\251\333\276=g\177#>\322\242\275=\347`u\274C\3030\273+R\231\275\366\010\377=\3107<:\311\205\306<\034\241\232\271\261\226\263<,3g\275\213\224\347\274\n)\027\275,h\271=\037\026\365=b\254\226=\026\003\036\274#\367\233=yL\344=\363\210\247=B\322\273\275\321<\001>\005d\215\275\037r\017\275\314\226z=\245j2=\207\272\350\274B\365Y=x{,=i2 >\032E\013\275\363\265\220=\227*\030=\345\241C\275Y\233\274\274\261/P=\232\307\237<\374W\372\275I\277\000\275/\'\333\275B\277\225=\375`\225\273\226\370\007\274\023o\211\275\007 J\275\357\322#\276\2533X\275\301\360\332<\033\321\313=\306\326\267=\375i\025\276i\255\350\274`\000\374\275\361\276\334\274/\034\317\2750\001\202=\265\224F=\006\243\177<\322<%=\'1\271\275\251il=K5\361<\262e\362\274\354#+\275\250\371\204==\001\255\274\230\341-=\334.\027;di*=sk\245<\342\326+=+2)\275\303=\006\274\354\302\210\274\213\310\240<Q\266\316=y\032\002>\360\"\250=\312\305S>\357\375\206\275p3\245=\227\215\205\273\030*\323\275i\226\254\2757/\035\2757\2430>\002\336\264\274l\327\000>\325\363\277\275\010\'\332\275}\006\\=J#X=\022O\245=\246EA=M\315\361<\334 \014>\013\327\204=\014\303\307=\265\352\211;\273\004\266=U\2356\275(\177Z>\363\335a=35P\276\336\353\257=`\216D>\200\\\265=\00093={v\256\275\215cd;\202\0164\275\331\205\273=\346y\222\275T\242\253\275\260\013\n\275\017H:<\354\001\331\273\350A\005\275\005\364\377\274\313L\260\275T\251\364\275\332\t\266\273\300\255\202=\261os\275~\010\306;I\340\365\275X\303\221\274\373\2200=o\235\022>\272\336$\275\347r\036\276\007\253x\275\344\r\365=QK\212=N)\217\275X\276\022\276\233\211\325\274\223n\013\274\201$\201<~\0332=|y\322;\257\033>=\222\020\262=\346\"\311=\r+\020\276\244\273b\275*A\240\275\036\251\237\275\217\355\324\275\225n\277= \223o\275\267\'@\275.\327\360\275\373\257c\274e\010\225=\341\367#\276*Ml=\007\304\230\275[1\257<}\244\254\274\020\023\274\275a\375\245\275a&\"\276\331l\005\275k\005\260\275\206(\204;\260$w=9WU\274\263r\027;^!_\275\310\226\332=\314\336\000=,\r\300=\005\354\302\275v+\223\275\031;8=+\344\307\273\256\300\251\275\244\312\360\274\373:1=\260I\247=\333F\006>\244\201>\275\304)\323=\226\256$=\221\2019>\252.\36282{\200=*\250\357<\\\216;\275\216r\217\275(4\310=\371\246\360=a\366\t\275a\350\355=\250\230\225=\361\217\017=\272\212\221;<Q.\274\333\211\000;1\331\315\274\267\276\366\274\212lE\275\322\nU\275\322\227\024\276\231\336\001=\377\270\255\274e\367i\275tu\304\275eQ\337=B\226G=\2730\022\274V[\241\274\023\226\205<qz#=\371\240\'\274\271\276\003\275{\020\217\274\337\305d\275\203\260\270<\276\026\213=\227Y\034>\016\256\327=\240\365\374\274\320\t\r\275\034\242\210;C_\027=\373\241\026\275\020\216\002\276\204\326_=xE{>\230\373\035\275\250\202\236\273\263\326\344\275\002,~<\0161\377=\264\277\243<\003\332\360\272\212l\377\275\351\253D\275ipa<C\274\024=\250\353\334\274T\'\207<y\255\217\274\240\256\333=\314\352\211\275&s*\276\326\317\315=\257\355\210=\243\022\321\2740}\253\274\311\230\237\275q\275\031\275exI>G(\213=}\306=;\360$j\276K2\017\276\'\032}\275C\221\225\274Jg\267=\245D\r\276\346m\336\275\374\024\243\275C\374\'\275\372\010\201\275\017T.=\3746*\275%`,\275\331\026\361\274\322K|\275\353\206v\275{\017t\275\342W\260=\314:5=f\315+\275@4\246\275\355\377\216=XD\261;\371\275\025\274)\327w=\327\300f=\345\270\204\275\271\3104>\275\003\227=\245\373K\273h<\002>\374Y\020;S\254\006\276\306T\267<\317\247q=\272\342f=%\231\277=\205\347\357<\205\013\350\275|\213\311\274\213\370?>\365\370\212\274P\3223\275}\032\275=\340T\267<\365\3009\276\352\346\360=9M\222=L\243\263\275\310\030\247\275(\345v\274\370\260\345\273\234\261\361=\267U\220\275\336_\361\272\376\340\272<\370X\377=4\254\310\274&\343\353=S\035\204=\262\373\262\274.\350\310=t\206\334\275\353\023\022>V\345\001<\203h\023\275\226A\237\275\246\326\333=\321{\004\2768\021\006>1\222\327\275F\231\267=\030!\253=\005.\246\275\263\322\274<\245\017\036=4\013\004>M\237\241\275?\300\202<\356\330\352=(t\353=\351\005\201\274\r`\340\274S2\223\275\237y\210;\221\260\366\274\336\352\233=\275\t\311;\355\\_>\351\314\372\274\242\333(=2\261m<\r\344\326<\025F\241\275N.\267\273on\231\275\310\364\205\275\213\231#\276)\340\267\274\306}\230\275\207^|\275\251\205\256=\225\035\353=\365\345\253=U\343\246=+H\000<\254\217C\274%\3266\275\177\257f\274-\2110\275V\214\206=\037\230\200=q\010\250<\210H^\274\350\n\020\276\255\340\241\275\004-\004\275@.\377\275\2335\341=\210A/>\331Pv=9G\024=\021\020)=\274,^=\355X\361\275\207\266}\274\207\251\311=\256\276\343\273\335y\204=Y\250\306=\342e\342;\305dD\275\030\333\214\275\'\270\010<\177\023\266<?\360\030=\331\032\310<*\370\323;\032(/\274\325\374\r\275\004\371K\275\022\355X\276\242\255\213=\323H\234\275Sz\357\274G\205\247\275\270\023\001<4\342\021>j\313\020\275\255g\315;\247\t-\274:\355\347=\340\221\203=\177+\235\275\367r\003=\345y\207=\215n\212=+c\247\275,\356J=[\255\217=\256\226\006>\206\345\256\275\350Bt=\225W\240=.\037\001\274U\232\215\275rW\307\275\035$\211\275\364\013T<X&\317\275\000\2157=ZiY\2759\037\353<\345q\022>o\262@\274U0\266=\242\207\006<B\334\236=\325i\344=!\033\035\275\rx\203=NT\317\274\227@\022\276u\037\225=8b\213<n\342\316=`\305\356=R\177\013\275\334\216\232=\001\000\301<;\251=\274\250p\321\274\270\010\215\274\022/\306<dR\235<JS\325=\311\332n=\262\272\253\275\241f\271=\300^\026<Y2\216=\t\220U\274\'\224\031\275$|z=\346\367\360\275\t\321\355=1\306\265=\'J\316<\324\277[<\365\302\225\274\324 \241=\211s\276=~\373\344\274\330\367\343\274\301\205\213<\254\201\321;\331\364\277\274Y\306\021=\353\232)>\220\216\340;\352\324_=\272\303\310\274\247+\376=\362\364q\275\010\321\244\272<m\204\274\310\330\031\275\275\030\254\274\002\031\362<M\303\234<\342\030\323<\211J\251<\r\203\301=\265!`=\344\r\034\276b{\016\276\2532\342\275`\254\323<\201\221\363=\362\200\221\275\267!\031=w=\270=3\026\234=\307\"\266\274I\363+\275\nJ \275\243|Q\275\306q\201<\006\004K<\330\322\235\274\257~4=&C,>\262\332\277;\310F\346=\010\276&>A\037%\275;\256S\275\375]\202\274m\257\\\276#x\341;M\354\316=\002\300H\275\227\361\004=\001\207\260\275\233\370\230=$\233\002=\354Y\r\276D\251:>\351\251\323\275i\370\232=\266{\016>\337\372\030<h\000\001\276F#8=;V\226\275\361\366\305\275\204\210\221=\037y\304=!\334E=\332\324\341\273\251~x=\267\0230=\362\272\264=\\\212\234\274\006I\267\275)[\024=\275\362?>@%\265<\322\260\004>/\376\337\274\313\312\357\275F{\345=\301\326\214=9\2649\275\357\263\344;$@\227\275H\345\201\275\260WV\275\310\342\336;em\271=\\y\372=\307_F\2756H\217\275eJ\025\275\240#\227=\341\206\177<f\360\211\275:\276\216\275\256|\305\274\215\315u\275C\334\024\276\314\265\241=\345\231\264<9\205\217=u\320\013\274\205\004\034\275\327\307\013=\222R9=S\300\322=<\256\213\274\0060\356\274\030B\210\274\3060\300\275\257O\300<C\010\037>!\3769\276^*\336=\037\265\013\276\207\312\241\274o>\351=\343\025\337=B\260\336\2745h\243=s\271\031=\242O\025\274\250\305e\274\215\354\241\275\021\212\311\275\353\366_\275\365\311\\\275\373+v\275g\326|<\010\177\251<\233\265\027>Z\244\373<\365\375\202\275\207\244\037>\332\306\036\274\022\346\214=Y\240\210\2756m&>\235\234\205;\377\253\303;\245\340\213<\317\352\261\275c\206\035=\300\212E=\214\325\024;0\227\362=\241\310\212\275\tu\016\274Z\273\024=\342\333\256<\321o\244\274\306;\236=\244\217!\274\277A\356<n\037Q\274D\254\216<+\301\224=$g5\276\230\255\223\273\305~[=\310Z\261<2\352\256\275\247(\315\275^k\264=?H\000\276D\277\262<p\366\205=\327Y\226\275R\332\225\274\301d\223\275\324bV\275Nn\272=\214\035\331=[\214@<D\347\027>\264-\342\275h.\014\276\244\305\316\274\226\241#\275\304\330\331:`q3\275kD\256=T\374\222<\302U\257\275\344Z\203\275,\364j\274\004\317\356=\250\315\337\274\267^\224\275\3447\300<6\1776\276\317\301o=\247\314\250\274,h\'=\020\350\322<\310/\004\276\305p\211=\002\034\362\274N\017\322=\336i\226\273\276\344)\275\267\223]\275\177\2548>\301\266\216\274k\256\033>i\002\221\275m\376\222\273\243\340\200<\214L\230\274\366n$\275\213\342\000\274Vcj=\234\256\307;y\324)\272\302+\021=p\356`=\310a\311=\221\221\271\273:\210\357\275\303\225K\275\226\236?<\007?\316\275\260\241\207<4\232\301<\355\221h\2756E3>\\\212}<k\243)=j\031\r=\352\217\221=\271\214\017=\365\017\321\274p\3253\276J8?=\305\"\235\274L\210\211;\177G\316=b\363\"\275\224\302\315=[\223\251=8\340\201<\334\341\322\273\231\332\314=\230\240\272=~\371C=Py\315=\370?\270\273\250\276\036>\202\262\242=B\301%>Q\\\253<T\017\207\275\353/\257\275W\234\312=}\024\361<\304\237\346=\007(\220\275\3530\230\275\244\330 >s\0209\275{\247\220\273^\025T>\013E~\274\2061\240=6z)\275\3474\'>\336\346\266<\271T\207=\231\313\353\271\333\377=\275v@\260\2755\276\262=.\322.>\246\247X<\2404\017\2752J\016\2769\341\275<\366\345g=\313\010\243=[/\230;\211O\333<\256<\221\275t\343\341=\367\252\326\275=d\317\275\033\027\206\274\007\r\210\275\350>a\275\021\353)=c\306\273<8i\257\274\327\353\362\274\316\377\327=\300\'\256\275\327W\223=\242p\202\275\216\005\215<\317\255A<\021\367\277=\216\325!\274\233_\014\275\342\246\207<\354>\337\275G5]\275f\337V>\221|\207\274\023(\232\275\343\032\333<\274g\274<\332\345\364\275\367\323\217\275\355\270\023\276\344\361\033=z\343\305=\005\035\355\273s$#\276`s\352\275iU\250=\302e#\275\355\352\036\274\006\254\323\274M\250X<\217\000 >xCb=\356\357\311\275\010c;:f\210\277=\351\255\246=\300W\362=\0101\340;\347_\262=2fg\274\221\306\343\275\211\375A<7\244\346=^\310\225=z<\345=\275\001\n>\3176\313=o\013\361\275\376]\016\275F#\331=O\234m\274+:\300\273\034\305\236={ \234\275N,6=\236\031A=?Z\214\273\204ol=\202\204\365<I$\247=\365\244\301=\237\021\341;\312\307\242=\340\332\305< v\"\275\033Y\337\275\243\230\314=\352\367\014\276\243\225\002\275\026b\301\275{8\325<\263\000\235=\244\214\236=B\r^\275\346\331\375<A^:>\204\232\010>yb\036\275\362\221\226\275\236\340\'\275\003\"\327=\r\307\340<\234o\233\275\254\346%\275<\216P\275\203\240\235\275\2048\374<\255n\216=mU\267\275K\370\252\275\'\351\254\275+8\221\275\321\347L<+r\020\274\206+\313\275\036L\t<z\247D=\316\363\362\274\033\303\216\275\357\315\321<\330\342\250:\223\016\030=\220\333\211=/1i=\315\231\365\274?\211\t>\270\177b=;\340\003\275\2763\263\275\211`\244\275\033l\307;\276\016\357<\025\267\304\275\304\\\362<b\243\240=\271\371\370;\272ul=)\302\002\273\216\233\372\2752\304\304<\027\322\263\275\317\357\265\273\303\336\217=P\027A\275E\007\304\275\026\"i<\212`\325\274J[\272=\205*\033<\201\314Y;\037\220\221<\376\002\233=\355\216N=\220\244\220\275eZT\272\234\243\001\276W\265s=&\241\215\274\265\030[\275\274\326\215;\226\0163>Q\026\022>\301\020\323=]\002s\276\365\034\274\275\036\345\210<\200[@\275\277\024:;\205n\253\275\262M \2760\244\321\275\266\377S=x6O\275X;9=\205\347\\\275\200\230\343\275\277\226\357<\235\332\276\275\031v\374=\251,\274=\006l`\275\377<-\275K\265<=\274\333\t\276\260D\246\275\336_\226<O\225\314=\313\214\334=b\244\236\275\227\031G;hb+>\ryp\275\330\3538\275*\212\267\273\022\230\272=\244s\233\275\235\013\364\275\250F\223\275\030\246\240=\370\014\260<\031p9\275\203\267\343=&\234%<K\245\362\275\301\017\301\275>\324Z\274ee\317<`\313\321\275-\312W=\356\251\217=\304\312\362=\373,\263=N\024\347\275\262\"\216\270\360!Y\2753\330\360<\254\216\352\274\307\307\032>\217\035]=\236\247\227\275\212\346\222=\252\246y\276\311\2723\276\3316o=\361\006\201\275\355\033\262=\036\226:=4\016\233=\255f\341\275c\326\235\275\223l\245<\260<,\272\017\276E=\373\223\206\274\014\233R=\356\366\245=\340\314\352\275\277\370\246\273o\263\242\275N\001v<#\302\373\274\201\264L\275\247\340\246=\035\362!\276(\031\013\2733\205\355\274\024\355\246\275?\270S=,\351\333\274\275\262\222\275\277\3747\276w\216\366<nx\211=\371~\233=\260\305\032=E\202\216\275[\367/\275v\323l\273\013\362B9\017\317\253\274\241~=\275\357\344%\276\325o\t\276MW\302=\n\262\n=\305g\025>\233\372\313\2754\027l\275\213/\277<\002!\303\275&\212\266\274\300r\232\274YZ\350<\010N\370=f\223m<\351\307\020<\001=1>5\201!>(\351{<\003\257_=q\254\237\274\254J\026\275\306\330_\274\2224\305\275\025Q\216\275\256\353\224;\371\274\327\275\274f\322\275\317m^=\205\\+\275;\030\352;\240Y2\275\321\034\275=\251\320s\275\234\'\307\275}\006\266\274P6N\2759\351\022>\002\311<;\326\267\030=\274\202\345\274\n\235\315=\215\351\000<\rU\207\275\362\262{=;.\336\275\214\021\020\276s~\343=]\344\026>\320\241\232<\037\376\013\276\361e\013\276\314\021\260=m\364|\275)\210\326=Ip\025\275\326\212\2439\331\201h=7m\211\273\332\304\261=\033s)>\223Z*\274\313\035\266<Vq\303\274\003o\n>)k\211<b\367\310<\253RZ\275\262\223\373\272\234<U;\231\211\372;\221\241\207\273P\300\264\274\0161\007=\350\017\322=\215n\224=\376\341\035=8\2654=V\200\353<\317v\235=vuq<q4\315=\245\351\374=\245\211\033=\002\271\261\275\270\327\224=\360`\276;\004\027\037\275\337d\255\274_\216\337=\273\036\346\273\252\027\230=\373./=%$\247\275\023\256&\276\343\022\026=1\341s:\231\0259>\327\266\266<H\'\266=4\013\201\275\217`\305=u\354}\275\346\372\355=N2\343\274J\204\240\273\177\317K=\027\350\265\274)CS=4\272q<\226\245\n>\233b\337\275<\025\\\275\206O\233;\034\254&:\377\374\031\274\236\271\360\274 D\323<\347_w\274\"\037(\275\232b\020\275m\303\322\274a\261\301\273\020\314\223<[Ka\275L\203\223\275\026\344Q=\205\356\000<|\247\313\275\257\233j\275\267\264\350\275H\347\r>\217\0344=\016\021\323\275@|T\275\013s\r=\\I\312=\003\330\022>t\247\273=\242z\220\275\257\366\010>\023\004\n>\000=\253<\2132\n\276\023\233\223\273\006\213\016>i\357\230\275\306\353\004>\234l\223\274\210\361\312=h\363I<\320\356\312=\302H,=]3\014\275\274&\315<\227d\236\275\003\201_\273\266\324\275\275\327\023\247\274\r5\225\274(\302\300=\036\030U=\252\363\263=U2\224=\207\332\215\275\243L\326\273zG\305\275\017R\344<\007a\014=\271J\347\274`\025\250\273\365\273r\273b\276\020>[\r^\274\263\231\033>\362\271I\275\2277\207=)\337\216=I*\203\274p\266\227=\315\022=\275\357\001\217\275\371\274X=\307\261M\274^\014\222<\377\004:>\236\340!=\271\024\266=y\350B<\016\264(\275\024\230\344:\240\327\217\271.\366\377\275P.d<^\332\001\274\347\274>\274\342=\314\275\272\351u=f\037\337=\213B\354\274\351\216\307=\027\230A\276c\017\262\275\200\r_=}\2708=\203\237\315\275{a\200=\020\307\307\274\317\253E\275\302W\334\275\"\231\376=P\265\302=^\000\370\275\375)|\275_NW=5\002\210\275\315I\t>\014\334\032\275\235\365\256<\377\350[=,\033\260=\340|\026\276D\302\365\275\035\327\006\275o\002\230\275 \0059>\035\353\246\275c\236\352<:\305\246\274\203\031U\276\214#\214\272+\256\346\274J\322\345\274\305%h\275\020i|=\253\005\014>y\233/\276\345\326\037\274\2723\225=\237\201\272<\325sp=I\315\316\275&\014\264\274(\364\017\275\344\345\347\274\265a\374<\273;3=t\215\230<B\257\271=\226G\212=S\032K=\364\371B==g\220=\024+q=\223\300\214\274\017\'\027\275\267)\250\275\2732\256:\202k\222=0S\320\275H>\365\274\001\023\355<iz\303\275r\311\020=\367\341M\275\027\230?\275\2279\026=\360[\014\276\002\224\216=\256go=\262\210\r<\352\025@=&\374Q\272\247\017\014\276)\245Q=\034D\334=\214\035\340\273\371a\n\276\327\020_<dx\323\272\202\001\257=b\221\257=\034\211\256\271\376\271:=\304\\\010>\375\310\325;\323Z.\276\222F4>\345\346\323=\036\206\317=X\347<\275i\260\010<\333E\205\275\214\272h\275HU\364=8w$\275\333\331\253<(\275\250<S\341\031=\267k\202=0\254\026=\321mz<\\\377\262=\000\344f\275q\361\215\274\013K\236\275)\326\310;\227\3427<\0177\275;\2408c=]\240\035\276?n\255=C\013\326\273\262W\205\275S\307\375\275\260\022\007\276\374n\376=\004\311\033>\315\273d=\317j \276\275\304\351<\334\027\267\274\277N\020\275\032I\006<%\217\031\276&\236\205<B\223*\274\304\262\036\275\2348K=\275\216\373\274h\366\006=\362N\000>he\023\275\276\245l\275v)\364\275\306\316U;\246\026\313<m\341\210=G{+>\3023Z\274.`\303\275Zk\240\274\342\324\310<]\303\001\275\223\372\n\275\267\021/\275\301\242\334\275\273\205\233=\213\274g<\253-(\275\353\352\t>%\253\021\276\331\326[\275\377}j\275+7[=/\230&\272 \272\210=\273 \033=\315\023\034=Q\230s<\364\347\331=\245\372\246<\316\357\260\275W\256\006\276\2542\227\275\374\035g;\306\366\376=\021\2027=\207\242\232=nT\250\274\017B\300=$\036\276=\231ID\275\303\234\337=Gz\024>\203N\333=\270\376\310\275\007#%\276#6\243=m\212\312<\305P&\275Dh\242<\031\304\001\275x\\\225<\203\357\205\274\222u\351=\2775k\275\246H \276\252E\014\276\006\207\310=\"%\234\275b\031\207<\224\363Y\275\212\277\027=\341\352\002\275\237\235\345\275\374!r\275l\231Y=F\367\206<ebj\274\371\3353=l\237.\275}\313\210\275\020\276\240\275\202\000\204\272lEB<\000\235\032\276G1\207\275<\347\255\275^\372\265=\362\374\n=6\006a\276\367)\344\274\274`\371\275\224U\020\275\005/\002>0,\354\274H\233\230\275\023H\310\274\272\365\310\275\303\0309\276X\\\202\275\304\371\211\275\374\275\270=_\201\245\275\345\360\252\275\035\017\310=\274\306\207=C4\013=\375\374\323=\010S\303<\376\234\t\276\313\312z;\005\300.<\026\231\347=\276\202\275;(z\010\276\265\232\357\275\210vM\275$\232\257=V\2359=\330\025\014\276\346\000&=\334\267q>\310\226,\276\231d*>\366\277\350\275\275\370,=d\225\332</\341\255=\037\t\267\275;\207\251=\254\225\n>Wr6=\225=\266=\203\255#>\237pk\275\017\331\037\275,\307\267\274\365\360\302=\325F\206\275\256)\221=\254:}\273\246\023\324=\205\331-\275\215\t\310\274\323\370\336;\331\376,=\266A><\272J\320\274\373d\027<\230\346\366\275\265%\312<\023\376\r\275\303\261\006>/v}\275\274\355Y<\354\373\025=G\033\333\275\323\020\003\275\365\346\257=\353d\032=9\203/=\0269\203=g{v=\177\347\000\276#7n;g,4<\340\371P=\275\220\200=\022Mc\275c\271\242\2740\350@\274b\255\314\275\002Q\372\2753\222\004>\356\263\216\274\213\333^\275N]>\274\000I\321\275@\036\340\275\316\223\231\275(\225\244\275\375\327\005\275\231\375t\274v\216\251=\214\300\016\274\367X\307\275+fL<\335 C>\363A\001\274\310\225G\275\203\333\315\273\203OS=\347M\304\274\007\340\024<\330=\301\273\231\366\017\275%\326\024>\223\266\253=\244c\367\274\265\240\017;\211\305\252<\270\237\017=\375\203F=\342\230\270\275\216\220\254=7\306\252<\270%\020>:=\223\275\244\344\270\274\327\303\371\272\344\2128\275r\316\205\2754\244\220\275\3625\256\274:n\222<M\233~\275x_&\276\305\016t=\342\373\201\274\233\311\233=\313\267?=R\2422=x\024N\274\\\227\235\275\330j\327\275\213\377W=\\\330\023>\3505 =\016\331\255=y\320\205=\361\244\221\275\350\347\016\275\276\227j<\'\017\001\276<\232\310<\323\251\266\275\320\247\204\275\366\312\223<\3677\237=\342\315\332;~I\242<\340>\242=\201\237\005\276D+}\275\364IK\275m\323\232\275\200?\024>\001J\273\274\324\026<=\215T?<\312)Y=\262\324\237\275i\353\270\275\254h\021;\024J\355=$n\360=\202\277U=+\3733\275&\267\214\274\010\315\236=t\364\257\274\305\016\241=k\351\240=\013]M=Fc\010<\035\304\226\275\311p\303<\230\201\360\274\363j\342\275\320xt\273\366\031\230\275by(\276\266\030\217\275\274\277\334\274\360\2543=1`3\275E=\001=s\n\026\275=\361\214\275\033\224\036\276i\301;=\277DF>\222\2274>\3471c\276\372lb\275\324\200Y:3\233\207\275.\320\226=\374E\361\274\2224\236\2758\265\233=\017P\232\2744\257U=g\321.=FJ\217\273\214\325\351==\262e=\256Y\334=\005\3363\275:v\022\274i\327\264\275\350\2211\276\355\377\202<+\261\222<\321\221Q=sB\005\275\025\005\214=\267\205\005\276v\212\n\274\007\213\021\276\327m\026>>\262\361\274#\211A\275\330{r=\313\033$\275\3344\253<gs\343=\366\372e\275\307\010\271\274\036\023\312\274\240\344\310<^\005\004\276n\035.<\313W\341<\330\005\362;\017\243\002\276\215uE\275\360\252\344;\006\001\221=N\315\n=\200\3273\276/\237\020\276x\250f=(\366\222\274\215\347\367=\341\266\016\276\377\233\033\274\007\3473\276\001\010k\275\031\360\277<!V\260\274=H\216\275|\366\316\275\013\245\341\275\200\200\230\275D\374\272=\310\013?=\374\356\267=\206)8\275\353\326W=\210b\210\275\213le\274\374\037\230\275\375\337o<}\234\210=\357\274\246<\335r2\276\001r1\275\n\206j\274(\300\313=70\244=P[\031\275)\016\217\274\266\334\237=\334\251\231=\347\245\246\275W\"k\275{\264x\274\370\033\005\275@\211\307\275\274\271n\275\2009>\275\350V\004\276~\244\201\275\273[}<\306!U\275\275\211Q=\005\314\237=Y\307\031\274a\017\221\275=\017\233\275=n\035\275\222\251\252;\305\252\213\275\021\276\014\275\345\376\233\275\310\267\353\274\313\372\223\275^\016\233<\222\272\301\274\363\026\025\275\275\327\030\275Y\243\'>nRO=C\300\260\274h\316f</\231\370\274\371\211I;\304K;\275\213\340\314<%N\307\274U-h>\357\252\253\275\370|\354;\237\372\327=\246\354T=\037\307\253\274z\317\017=\210\324\035>\313\333\212=\301\177\310\273-w}\272\321a\322\275\213ix\2752\265\265\275\354\n\375\274\251\307\237\275\227/\312\275\372\346\351\275\224\272\247<S]\037\275<+U\274\366\023\226=\332\254\220\275\214\2410=\367\303\220\274\025\351\207\274\250\206\216=\022\345}\2752\267\351=89\001>J>v\275<\221E<\212\023-=\306\225\267=\201\206\221=\032!\024\275\204Y\007\273 \244\006>?D\001>\243\302\020=\367OL7\3466k<\342\245\262<\222L\'\273\031\021;\275[\311\326\275\017U\220\275{L\236\2744\221\265\274\234\234\231=0\r\306<\274\215\306\275\347\314\233\2749\207\273;\322S\364\272cY\314\275Gv\004\276\001 \303\275_\207\250\275\017\363\236=;\327q=\336\024\264=\014\367\200\274Kx\266\275\254]p=\024\325\001>\341\"\260\275\366P \275\206\000\231<\355\030\301=\037aR\275\272\026\023\276\276\017\367<\277\244\r\276\273\222\217\273\221\026\212\275\376\262M=}K\021\275\353\326\247\275\202b\032<g~\204=k`\332\275\n\277-\275\373\300\313\275\337n\016\276M\255\346<u\337\265\275\2415\206:\030\241\275<\251.\367\275h\265\327\274-f\260\275\365\371\272\275\'t\261<*T\331<fK\013\274\361\302\311<Z\371\000>\035\300\004\276\365\360<\275\025\212\231<&\237\032>\006tC=\261\3240>\031\234\201=\031\307\362=\201C\324<\337\275\032<\343+h=\351;H<\304q{=zvQ\275\262\026V=\224\233\351\274=\331\025=L\226\305\274\037=}<\274O\245\275\262\032\027\274\247\273Y\275\337\267\213\275\335\023\217\275\317\332;=\235\030h\275\320\264\311=$\237\020<\013\266\226;\306\326\315=C<\237=\340u}=\215\317\006\275\356\022\225\275.o\004>\342\203u\275\334J\351\275\017A~\275\010\027G<\264\003\333\274\364\373o=G\274\225<\216\234e>\260\346\023\276\320b\245=(\305\000\276\230w =\206\336\342\275\331Lj\276\202\225l\275\226\363&>J\263\323=\302\302\372<\035\005\021> Ii\275\376`\307=\346\351\261\274\327\310q\275\211\272\262=\236\r\r>\261\001\367<\024o\224=\001\273\335=]\227;=+\013\220\275A6\003\275\216(\006>\277e\200<\002\253\216\275vv\021={\260\341=\365\316\341\273Zc#=\005^\312\274\257d\220\275\356\326\255=\261\237\303=Dy\306\275\005\t>=\013\031\232;\217\"g:\310\003\224=\2520\233<\036\'\262\275\353A\030\275\304\323&=S\006\n>g\345\331\273q\234\344\275\250;\246=Q\004\252<\272\3407<\324\177*>\007\021\350\275\242\\1\275\032\302\266\275\273nZ\274\024\227\265\275\324\234\023>\214\226\202=\321vU\275\316]\262\275\363\317\346=\364$\227=\263W\207\274ju\302\274\356s\023\275}\243\t\2765i\315\274\014\004\263<Y\323\231=\320\326a\275\306\250\242\274\244\n\\>\377!\203\275_`L<t\003.=\227\035\331\274EF\264=gdF\275\212(\013=W\346\004=\276D\212<\203{\260\274\326\036\344\2736\271o=*>\322<\025\254\203=\212A\321\275\213E\360\275\323e\231\275\350Wx=K`\267\274@\264\352\275p\222\300=5\340\273<\003\324\320<\251,\351\275\271W\355<%\334\316\275\325\320\\=P\220_<\371<j\273=s\270\275\\\263\263\274e\221\303\275\212\216\347=\240O\006\274HPL\275\221\347\206<;\330\016\274\360\326\t=|q\337\274\274\237\271=V\326\334=\3018\232\275\277\306\215=\361\001\356\275)\361Q\274\036\243\321<\3366\324<\001\024\227=\354\234\223\275\360%\225=X\346\373\274C\361\316\273|\002s=Y\307@>\344\363\344\275\363:\005\276\320g\240=\334]\232\275\0308\241=\315\243W\275T\271\207\275\350K\352\273\376\264d\274\225n\013<cF\223=q\325*>\376\214\333<\374@#<\274\031\360\275\354\213s\275\262z\363\2731\335&\275\207o\007\276$\250\204\275Kx\227\275\361\242%\276\365\024\200\2757\361\253\274\253\005\030=\022\375\215=\354\335L>\245^\357=\254\361\020=0d\335\275\001|h\275>\261\\\275\332\366H=L \324=\252\211\264\273Gb)\274\300kl\275\0223\017\276\014H\275<\357Z\020\276[\206M=\370\301C\275\272\341\221<\302\024\236\275\273\3374=\372\3146\275\272\351\310\274\376\017\022\275\255\221\215=9]\002=G\273->\223^\201=\230-\201\275I\223\225\272t\304\206<6x\247=\345\024\">\222f\232=m|\025\276\006\253\251=\260\312\000\276o\205\231\274\327\000\351\275\311J\013\276\311\213\n>v\023\027=o\334\004\276\307\337\006\275u*\267\274\205!\212\275\360\245\031\275O\312\221\273]H\211=4\244\350=\203l\221<\336\000\227\275\270\343\210=S\342\003>\013\267\332=\24096;\005\221\013=\017\301\215<\334h\223\273g\'#\2736\275,\276\3053\260=2\303\220=\202\374T\275\205\364@\274\202&\323\275\217\240\262=\327\236\020\275\344.\346=\3073\'=\007G%\275[\"\202<#E#\275\366\350\336\274(\247\300=\017-a\275\332\245\010>m<\025=\250\215\006\273\306\204\016>\240\212\201\275\346\247\210\272X\243\034>\006w:>\231\243\016\276\355\"}=\210\237l=\232\350\236=\225F\240=\372\253\220=\025\217\264=s\251B=\204\230\274<9|\n=\325\323\237<*\256\256=\240]d=\013\336\232\275&/W\274o\246\210=+Yt\273\3212\022>3m\221=\325\227N<Le\347\273\335b\375=\354K\021\275\310}\236\275\3437\013<\272\021\020\276\210\240y<\002x\201=/\n\247<\221\342\342\275\0353\357\275\356\177G;\305\\\'=1\257D=z\310\026<\314\347@=8\240\032>\260\304\311\274\"\270\374=\322\360\207=k\000\355=\013\005\247\274\225\250/\274G\330\'<Vz\000\276\002\332\274\274B\324\340\270\026\326\003\276&\252\252<\214\335\212=\\t\273=\314\373@\275\207\317\363=\320\206\202\275]#\333\275;\t\322=\366-j<\274\016\316\275 \333\357=\370\276+\275\025\354y\275\265`;<B\377S\275\216\025\263=y\341F>\000\242\016=\207\301\217<\214\010\254=\035\002\256<\346\000\3007\010\332\254\275gM\210\275T\031\240<\207q\317\274\355\323\030=\246a\026=\335\230\271\275\200\030D=\234\236}=\236z\317\275\206\371\326=\225\242\253\275,\177\365;@\370o\276\323\204\342\274\254\237\275=\242D\272\275\266\375\233\275H5?=K\251\030>%\206\002=f\313\230<g\026\014\276\321\270\311\275\237\230!\275q\035F=\300\374\247=\250\335\214<\323\0324=\325\372\014\276a\317\257\275\036n\'=?\330\036<p.$\275`\333w\275\3039\025\276\\~\026\274Ie\313<\r\212\343<\376\035\311=\267\030d=\370!\211<\246\021\373<\234\010\323\275x\276\222=\211re\275\202}\316<\177uO=\r \004\275\3110]\275\265k\001\276gu\"\275\347@\001\275\367\331\262=C\032\351\274\2307\270\274?{\001\275\341\202\216=\367\251\303<\356c<<c\020\231=\346\\\276=I\361\210=x\013\005\273\214\337\025\274<\033\026>8\017\316\275\272n\212;\304e\002>_\272\337\273\034\231\023\275xm\371=Eu\266=t\210}\274\035c\257\275\024\017\301\274\360=\000\275\274Q\016>9\246\335<\264\377#\276\265\346%\275\003\231\224\275\005\225\222<\2170\022<\241s4\275\206a\320\275\206\017w=5\242\237\2746F\210=\351\200\355\274<yT\275\331(v=\237m\227=\375P;\275\362\233\007=\311\3422>\007s7;58\252=wf\345=\270\321\"=n\276\212\274\245\335!\276\245=U\275\351\322\274=2\216\205=\372\000\320\275\331\224\256=\251\370\277<Cj\321\275\311\263\201;\251\263\262=\204\313N\275\232\034\277=\320\314_\275&\342\215\275\362\361\345;K\"z\2754\234j\275\370\022;=\210\325\025\275\221\226\375\275k8\001>\306\035\316=\3475\235=6H\267\275\222\322<<\215\274\251\275\367@\250\275V\247\217=\365\323\007=g\313\250\272\362\241Z\275$V\205=N\327\262\274%\266\341=#\307\037=2n\344=\212J\n\275\010p\261=\222\371\340=\023\262K\276\275\227\026\273\023\273[\275\351\361b\275\273\037\232=r\203\301\274\363{\003>Y\006\311=e\365p=v\367\266\275\000B\267=\326\3310\276+\033\030=\374\205\031>TD\236\275n_\014\276(\301\314<,|\232\273\2658\235\275\376\256\274=\320\202\027>\361Z\363\274\210C\312<\241\214\232\273\3673%=\204\366\237\2755\244{=\365k\333\275v\243\344<\375\205\216=\315m\333<\340\250\004\275\274-V\275\232|\212=+\366\036\275\231N\001=\201\013\371=\355\261\024\275\372\270\332\275)\2729<\271\\\033\276\206\227\203=\\~\251\2753\314\224=Mn\010\274$\354\377\275\016\243\273\275\227\000\217<T\346~=#9\372\275r\200\270=\362\217-\275\n\010\000=\002/)\275B^5\275i~\253\274S\202\275=\342\2736=\177\232^=4\357[>sc\322<]*>=oA\026>\237\010\347\275\233\376\321\274\346=\222\275\3748\213\275\320\305\035\276i\016\201=>\260\265=\372\3113=A\0171\273@\341\254<\341\375\200=\215\316\210\275\234\027\265=\307\\\307=\230\255H\273\030\203\025\276M\206\237\275\3516\235\273P\023\214=M\2558<oP\217=\377\201G\274\372d\311\274a\224\241\275\340\255\326\274\372\"\321=\211\211\262\275\313\311\210=0\377\037=\017\312\003\274\033\3276\274H\322\363\2750\000 <\317T\203\276\236\020\314\275\336\315\263=\375\325\307\275\252\303%\276@?\236\275Wn\202\275Q\314\034=\260\370\027\276,G\234<xj\004\276\222\250\346;\232\316\337=\001\264\014\271\001d\177\275\251.\177=\213\312\035>\346\0376\275`\205M=\007\203\200\275\206\r+=\026&\232\275S\243K=~D\n>zgp=\026\321\037\276P\"\242=:;s<\254\260E=\364\210j;/vq\275\374\2510\275\313\262\304:\337\361\214=\274.\311<\271\251\322\274`Z_\274]\214\315=ZS\022<:^\226=A\241b=\321\214\371=a\375:=\202\242\264\274\t\322\252=\361\004\026\275\317\275<\274k=\300=\242\033\250\275D\220\274\2757l\242\274\224\355\225\275\236t\027\274\233\025\241=-\302x\275\352\353\010\276\230\240\310\275\351\206\\\275Y)\323\273\377\031m\275z\214\267=$}\266=T:\014=\371:\022=gN\227=;n;>\203!\252<w \024\275:{\017\276Y\0234=\034\375F\276hZk\274~T\202:\330f\350\274B!\215\274\001\251<\275T\027\3369\275U\334\274S\345\330\273y\257\212\275\215\374v\275vg2\275\360&\323=[\2058\276\235\372(\274U\237\200<\"\274\342;\272pm=x;\203=g\010\r=\023\370\266;Z\312\352=T\270a=G\256\265\275\247\213j=BQ\312=y\220\017>C\210\021\273\310D\331=*1\201\274\007\272\021=\253\331\016\276\201\224d<\340\246\246\275Y\326\266\275\300\221\233\275m\242:=W\210\327\275\371\016Y\275\251\022u\274\243-z=\r\347\302<n\326\033=J?\236\275\314\006\246<N\262\003\276\005E\204=\334\234J\276\235}1>\277f\373\273\360\221\203;\315\013\323;\257z\017\275\321\303\200;\2470$\275\336\201*=\235\221\213\275\276to\275\220\220\177<\'\371\250=\374\333\272=\202\323\001\276\201\335\350<\335\230\275\274\345#b\275\211\244\357\275\234\212\256\274V\366\022<\016\335\033\275\345\337I:b\227\201\274\323\010\203\275q8\351\274`\302Q=\270\271\306=\363\307\004\275t\266\000\276\377\026\310\275$\255\337<;o\356=E3\330\275\337\243\351=\371\234\311\274+5\247=\257\032\205\276V\326t\275\030\232\253;\243\316\263==Q\007<\305{\215\275\316H\334\275\272\212\344<R\303\322=\335\263A=\307@a=\2621\255=\252m)\273.4a\275\377\254\205\275B\254\230<\r\306$\274\000p\334\274\206\204\017=\351\331\335\274}\353\333=\271\206\315=j\212(<y\005\307=\325\311\242\275\312Iu\275T=\377<\325\257\235=\334\324\256=)\210\270<\302\331\306\274\312\177\230=\366\326\036=\256\025\207\275\222}\026=\331 \027\274\350\223\022>_\226\250<\221\375\031\275t\026P\275\030\332\r\276\0341\253\275\300\304\303=\t\230\254\275\370\240\016>\367n\265\275\252\325\360\275\275\347M\275\017\363V<M7\350\275\242m\236=\033j\013\276\246\227\010\276 \305\323<4\353\322\275U\223\312=8/\225<\261\325\207=F\347\037\275\273\344F>\265Q\223=\360\033D\274\235\t\201\275\377\210\321=~\253y=\005r\013>\201\030\317\275\365\"\034=\003:\202=\023E\037\276vo\261\275D\230\205\275pS:\275|tE;\214\241\241\2754\351\210=\010\245\302\275\363q\205\275PV\226=\367\234\247=\177\210\311<X\264\321\275\006\352\330\275\300\255A<\346\322G<\252\360\261\275\331\023\034=\213\304\247\275w@\025\275Q\320M;\022\360\363\274q\014\377=\331\356\345\274\016p\213<4\320\324\275X\311O;\335\273E\275\351p\323<\357\240\354=\353\256\260\273\020u\240\275\206\017\302\274\016\022\302\274\014\230\025<\271`\214=,L\034\276\302k\303\273\233;U<t\356x\275\371\2763\275\026\204\354<\225\266F\272\016\240\n\273\2435\263=\216A\025>d\310\007\276~\000K\276\220-\036\274Z@.=\311\357\020=tx\230\275\016\037\331\275\014\264d\275\321\214\233\275\214\240\317=\3363\324\275\3470`\274\225\3352=\027\210\n\273\264\221\007<\010\005\271\275`\346_=\230\316\375\274\031\214\004>\256k\213=\364\336\250==\360\214;\355\003\262\274\033\314\330\274\312Z\314\275\230L\214=\263\241E=#a\250<\276\363@=\035\324\327\275\364M\365\275% \331\273\357\336[<O\374\203;\377\2544>\010\322J\273\322\177\234=!\352\023\275X\317\010\274\\\315\207\273\267\367\212<\345\223_\275\346C>>-Z\t>\n\3045\275B62=\027v\315\275\372\366\014=\253\257\325\274I<\r=y\306\037<\340\332Z>\3265^\275\243\201\232=\364=\200=\226\315\241<\0057v\275\201\264\"\275\212H\271=\013\316R<Ju_\275\005H`\274b\345\321<\3579\254\275\217]\035=\217,\240=\022\345\224=<\030Q\274\006\304\241\275-\357\232=z\264\370\274\270\341\'<}\'c\272\272\375<\275E^6=x\222\226\275\235\347\316\275\225\033*<\",\256=H\240\271\275\373\003\177\275Rw%\275\207\264\305\275\024oO\275\014M?>\305\275\002\275?\273 >r \212<\014u\235=\036\206H=7\270\326\274\016\352\274\275\035\3714=\250\355\343\274\337cM<j\261F\276\007\217\233\275\020\257\r\276D\350\022\273\343\231\224=\225\277{\274\027rj=<\374\252\274+\220}\2751\207\266=\227r\010>\353F\363\275&\266\337=\247_\210=\"a\212\275\221\003\345; \272\231=(\313\030\275\266\337\230\275\340\201\361< U\240\275M\002g=\360&\346\275\177\242\341\275\'\000\234;VG\322\274g.8\275p\362\311\275\224M\342\274W\372\256\274\026\004=>\301\322[\275y\234\243=o\014\221<\230\343\301\274y\354f\275Y\034\271;\323SZ<\350\017\300<0\200\330<\003\316#\275_\274D<\305a\321<0\257R\274\"\037\025\275\007=\031\275\025\004\273=\2248I<Q\006\223\274\260\256\364=\223j\226=\340JL>\376|\304\275\202\304\301\275J1\365=j\022\270;\353\353\326;$-\033\2743\026=\275]\350\360\275\212\230Y>~F\223=\217K\205=<\206~\274:98<%\206\265=Z\026:>R\215F=\374\316\203=\341X\251=*\354\316\275q%\025\27623R\276o\332x\275\027s\252\275\037\310\343=\257(\031\275+\020\373\274\016\317\246\274\007\004\241=]\247\255;XI\213=!\014\014<\005[\024=\225\006(\275\017\251\272="
      }
    }
  }
}
node {
  name: "bidirectional_1/forward_lstm_1/recurrent_kernel"
  op: "VariableV2"
  attr {
    key: "container"
    value {
      s: ""
    }
  }
  attr {
    key: "dtype"
    value {
      type: DT_FLOAT
    }
  }
  attr {
    key: "shape"
    value {
      shape {
        dim {
          size: 40
        }
        dim {
          size: 160
        }
      }
    }
  }
  attr {
    key: "shared_name"
    value {
      s: ""
    }
  }
}
node {
  name: "bidirectional_1/forward_lstm_1/recurrent_kernel/Assign"
  op: "Assign"
  input: "bidirectional_1/forward_lstm_1/recurrent_kernel"
  input: "bidirectional_1/forward_lstm_1/recurrent_kernel/initial_value"
  attr {
    key: "T"
    value {
      type: DT_FLOAT
    }
  }
  attr {
    key: "_class"
    value {
      list {
        s: "loc:@bidirectional_1/forward_lstm_1/recurrent_kernel"
      }
    }
  }
  attr {
    key: "use_locking"
    value {
      b: true
    }
  }
  attr {
    key: "validate_shape"
    value {
      b: true
    }
  }
}
node {
  name: "bidirectional_1/forward_lstm_1/recurrent_kernel/read"
  op: "Identity"
  input: "bidirectional_1/forward_lstm_1/recurrent_kernel"
  attr {
    key: "T"
    value {
      type: DT_FLOAT
    }
  }
  attr {
    key: "_class"
    value {
      list {
        s: "loc:@bidirectional_1/forward_lstm_1/recurrent_kernel"
      }
    }
  }
}
node {
  name: "bidirectional_1/forward_lstm_1/Const"
  op: "Const"
  attr {
    key: "dtype"
    value {
      type: DT_FLOAT
    }
  }
  attr {
    key: "value"
    value {
      tensor {
        dtype: DT_FLOAT
        tensor_shape {
          dim {
            size: 40
          }
        }
        float_val: 0.0
      }
    }
  }
}
node {
  name: "bidirectional_1/forward_lstm_1/Const_1"
  op: "Const"
  attr {
    key: "dtype"
    value {
      type: DT_FLOAT
    }
  }
  attr {
    key: "value"
    value {
      tensor {
        dtype: DT_FLOAT
        tensor_shape {
          dim {
            size: 40
          }
        }
        float_val: 1.0
      }
    }
  }
}
node {
  name: "bidirectional_1/forward_lstm_1/Const_2"
  op: "Const"
  attr {
    key: "dtype"
    value {
      type: DT_FLOAT
    }
  }
  attr {
    key: "value"
    value {
      tensor {
        dtype: DT_FLOAT
        tensor_shape {
          dim {
            size: 80
          }
        }
        float_val: 0.0
      }
    }
  }
}
node {
  name: "bidirectional_1/forward_lstm_1/concat/axis"
  op: "Const"
  attr {
    key: "dtype"
    value {
      type: DT_INT32
    }
  }
  attr {
    key: "value"
    value {
      tensor {
        dtype: DT_INT32
        tensor_shape {
        }
        int_val: 0
      }
    }
  }
}
node {
  name: "bidirectional_1/forward_lstm_1/concat"
  op: "ConcatV2"
  input: "bidirectional_1/forward_lstm_1/Const"
  input: "bidirectional_1/forward_lstm_1/Const_1"
  input: "bidirectional_1/forward_lstm_1/Const_2"
  input: "bidirectional_1/forward_lstm_1/concat/axis"
  attr {
    key: "N"
    value {
      i: 3
    }
  }
  attr {
    key: "T"
    value {
      type: DT_FLOAT
    }
  }
  attr {
    key: "Tidx"
    value {
      type: DT_INT32
    }
  }
}
node {
  name: "bidirectional_1/forward_lstm_1/bias"
  op: "VariableV2"
  attr {
    key: "container"
    value {
      s: ""
    }
  }
  attr {
    key: "dtype"
    value {
      type: DT_FLOAT
    }
  }
  attr {
    key: "shape"
    value {
      shape {
        dim {
          size: 160
        }
      }
    }
  }
  attr {
    key: "shared_name"
    value {
      s: ""
    }
  }
}
node {
  name: "bidirectional_1/forward_lstm_1/bias/Assign"
  op: "Assign"
  input: "bidirectional_1/forward_lstm_1/bias"
  input: "bidirectional_1/forward_lstm_1/concat"
  attr {
    key: "T"
    value {
      type: DT_FLOAT
    }
  }
  attr {
    key: "_class"
    value {
      list {
        s: "loc:@bidirectional_1/forward_lstm_1/bias"
      }
    }
  }
  attr {
    key: "use_locking"
    value {
      b: true
    }
  }
  attr {
    key: "validate_shape"
    value {
      b: true
    }
  }
}
node {
  name: "bidirectional_1/forward_lstm_1/bias/read"
  op: "Identity"
  input: "bidirectional_1/forward_lstm_1/bias"
  attr {
    key: "T"
    value {
      type: DT_FLOAT
    }
  }
  attr {
    key: "_class"
    value {
      list {
        s: "loc:@bidirectional_1/forward_lstm_1/bias"
      }
    }
  }
}
node {
  name: "bidirectional_1/forward_lstm_1/strided_slice/stack"
  op: "Const"
  attr {
    key: "dtype"
    value {
      type: DT_INT32
    }
  }
  attr {
    key: "value"
    value {
      tensor {
        dtype: DT_INT32
        tensor_shape {
          dim {
            size: 2
          }
        }
        tensor_content: "\000\000\000\000\000\000\000\000"
      }
    }
  }
}
node {
  name: "bidirectional_1/forward_lstm_1/strided_slice/stack_1"
  op: "Const"
  attr {
    key: "dtype"
    value {
      type: DT_INT32
    }
  }
  attr {
    key: "value"
    value {
      tensor {
        dtype: DT_INT32
        tensor_shape {
          dim {
            size: 2
          }
        }
        tensor_content: "\000\000\000\000(\000\000\000"
      }
    }
  }
}
node {
  name: "bidirectional_1/forward_lstm_1/strided_slice/stack_2"
  op: "Const"
  attr {
    key: "dtype"
    value {
      type: DT_INT32
    }
  }
  attr {
    key: "value"
    value {
      tensor {
        dtype: DT_INT32
        tensor_shape {
          dim {
            size: 2
          }
        }
        tensor_content: "\001\000\000\000\001\000\000\000"
      }
    }
  }
}
node {
  name: "bidirectional_1/forward_lstm_1/strided_slice"
  op: "StridedSlice"
  input: "bidirectional_1/forward_lstm_1/kernel/read"
  input: "bidirectional_1/forward_lstm_1/strided_slice/stack"
  input: "bidirectional_1/forward_lstm_1/strided_slice/stack_1"
  input: "bidirectional_1/forward_lstm_1/strided_slice/stack_2"
  attr {
    key: "Index"
    value {
      type: DT_INT32
    }
  }
  attr {
    key: "T"
    value {
      type: DT_FLOAT
    }
  }
  attr {
    key: "begin_mask"
    value {
      i: 3
    }
  }
  attr {
    key: "ellipsis_mask"
    value {
      i: 0
    }
  }
  attr {
    key: "end_mask"
    value {
      i: 1
    }
  }
  attr {
    key: "new_axis_mask"
    value {
      i: 0
    }
  }
  attr {
    key: "shrink_axis_mask"
    value {
      i: 0
    }
  }
}
node {
  name: "bidirectional_1/forward_lstm_1/strided_slice_1/stack"
  op: "Const"
  attr {
    key: "dtype"
    value {
      type: DT_INT32
    }
  }
  attr {
    key: "value"
    value {
      tensor {
        dtype: DT_INT32
        tensor_shape {
          dim {
            size: 2
          }
        }
        tensor_content: "\000\000\000\000(\000\000\000"
      }
    }
  }
}
node {
  name: "bidirectional_1/forward_lstm_1/strided_slice_1/stack_1"
  op: "Const"
  attr {
    key: "dtype"
    value {
      type: DT_INT32
    }
  }
  attr {
    key: "value"
    value {
      tensor {
        dtype: DT_INT32
        tensor_shape {
          dim {
            size: 2
          }
        }
        tensor_content: "\000\000\000\000P\000\000\000"
      }
    }
  }
}
node {
  name: "bidirectional_1/forward_lstm_1/strided_slice_1/stack_2"
  op: "Const"
  attr {
    key: "dtype"
    value {
      type: DT_INT32
    }
  }
  attr {
    key: "value"
    value {
      tensor {
        dtype: DT_INT32
        tensor_shape {
          dim {
            size: 2
          }
        }
        tensor_content: "\001\000\000\000\001\000\000\000"
      }
    }
  }
}
node {
  name: "bidirectional_1/forward_lstm_1/strided_slice_1"
  op: "StridedSlice"
  input: "bidirectional_1/forward_lstm_1/kernel/read"
  input: "bidirectional_1/forward_lstm_1/strided_slice_1/stack"
  input: "bidirectional_1/forward_lstm_1/strided_slice_1/stack_1"
  input: "bidirectional_1/forward_lstm_1/strided_slice_1/stack_2"
  attr {
    key: "Index"
    value {
      type: DT_INT32
    }
  }
  attr {
    key: "T"
    value {
      type: DT_FLOAT
    }
  }
  attr {
    key: "begin_mask"
    value {
      i: 1
    }
  }
  attr {
    key: "ellipsis_mask"
    value {
      i: 0
    }
  }
  attr {
    key: "end_mask"
    value {
      i: 1
    }
  }
  attr {
    key: "new_axis_mask"
    value {
      i: 0
    }
  }
  attr {
    key: "shrink_axis_mask"
    value {
      i: 0
    }
  }
}
node {
  name: "bidirectional_1/forward_lstm_1/strided_slice_2/stack"
  op: "Const"
  attr {
    key: "dtype"
    value {
      type: DT_INT32
    }
  }
  attr {
    key: "value"
    value {
      tensor {
        dtype: DT_INT32
        tensor_shape {
          dim {
            size: 2
          }
        }
        tensor_content: "\000\000\000\000P\000\000\000"
      }
    }
  }
}
node {
  name: "bidirectional_1/forward_lstm_1/strided_slice_2/stack_1"
  op: "Const"
  attr {
    key: "dtype"
    value {
      type: DT_INT32
    }
  }
  attr {
    key: "value"
    value {
      tensor {
        dtype: DT_INT32
        tensor_shape {
          dim {
            size: 2
          }
        }
        tensor_content: "\000\000\000\000x\000\000\000"
      }
    }
  }
}
node {
  name: "bidirectional_1/forward_lstm_1/strided_slice_2/stack_2"
  op: "Const"
  attr {
    key: "dtype"
    value {
      type: DT_INT32
    }
  }
  attr {
    key: "value"
    value {
      tensor {
        dtype: DT_INT32
        tensor_shape {
          dim {
            size: 2
          }
        }
        tensor_content: "\001\000\000\000\001\000\000\000"
      }
    }
  }
}
node {
  name: "bidirectional_1/forward_lstm_1/strided_slice_2"
  op: "StridedSlice"
  input: "bidirectional_1/forward_lstm_1/kernel/read"
  input: "bidirectional_1/forward_lstm_1/strided_slice_2/stack"
  input: "bidirectional_1/forward_lstm_1/strided_slice_2/stack_1"
  input: "bidirectional_1/forward_lstm_1/strided_slice_2/stack_2"
  attr {
    key: "Index"
    value {
      type: DT_INT32
    }
  }
  attr {
    key: "T"
    value {
      type: DT_FLOAT
    }
  }
  attr {
    key: "begin_mask"
    value {
      i: 1
    }
  }
  attr {
    key: "ellipsis_mask"
    value {
      i: 0
    }
  }
  attr {
    key: "end_mask"
    value {
      i: 1
    }
  }
  attr {
    key: "new_axis_mask"
    value {
      i: 0
    }
  }
  attr {
    key: "shrink_axis_mask"
    value {
      i: 0
    }
  }
}
node {
  name: "bidirectional_1/forward_lstm_1/strided_slice_3/stack"
  op: "Const"
  attr {
    key: "dtype"
    value {
      type: DT_INT32
    }
  }
  attr {
    key: "value"
    value {
      tensor {
        dtype: DT_INT32
        tensor_shape {
          dim {
            size: 2
          }
        }
        tensor_content: "\000\000\000\000x\000\000\000"
      }
    }
  }
}
node {
  name: "bidirectional_1/forward_lstm_1/strided_slice_3/stack_1"
  op: "Const"
  attr {
    key: "dtype"
    value {
      type: DT_INT32
    }
  }
  attr {
    key: "value"
    value {
      tensor {
        dtype: DT_INT32
        tensor_shape {
          dim {
            size: 2
          }
        }
        tensor_content: "\000\000\000\000\000\000\000\000"
      }
    }
  }
}
node {
  name: "bidirectional_1/forward_lstm_1/strided_slice_3/stack_2"
  op: "Const"
  attr {
    key: "dtype"
    value {
      type: DT_INT32
    }
  }
  attr {
    key: "value"
    value {
      tensor {
        dtype: DT_INT32
        tensor_shape {
          dim {
            size: 2
          }
        }
        tensor_content: "\001\000\000\000\001\000\000\000"
      }
    }
  }
}
node {
  name: "bidirectional_1/forward_lstm_1/strided_slice_3"
  op: "StridedSlice"
  input: "bidirectional_1/forward_lstm_1/kernel/read"
  input: "bidirectional_1/forward_lstm_1/strided_slice_3/stack"
  input: "bidirectional_1/forward_lstm_1/strided_slice_3/stack_1"
  input: "bidirectional_1/forward_lstm_1/strided_slice_3/stack_2"
  attr {
    key: "Index"
    value {
      type: DT_INT32
    }
  }
  attr {
    key: "T"
    value {
      type: DT_FLOAT
    }
  }
  attr {
    key: "begin_mask"
    value {
      i: 1
    }
  }
  attr {
    key: "ellipsis_mask"
    value {
      i: 0
    }
  }
  attr {
    key: "end_mask"
    value {
      i: 3
    }
  }
  attr {
    key: "new_axis_mask"
    value {
      i: 0
    }
  }
  attr {
    key: "shrink_axis_mask"
    value {
      i: 0
    }
  }
}
node {
  name: "bidirectional_1/forward_lstm_1/strided_slice_4/stack"
  op: "Const"
  attr {
    key: "dtype"
    value {
      type: DT_INT32
    }
  }
  attr {
    key: "value"
    value {
      tensor {
        dtype: DT_INT32
        tensor_shape {
          dim {
            size: 2
          }
        }
        tensor_content: "\000\000\000\000\000\000\000\000"
      }
    }
  }
}
node {
  name: "bidirectional_1/forward_lstm_1/strided_slice_4/stack_1"
  op: "Const"
  attr {
    key: "dtype"
    value {
      type: DT_INT32
    }
  }
  attr {
    key: "value"
    value {
      tensor {
        dtype: DT_INT32
        tensor_shape {
          dim {
            size: 2
          }
        }
        tensor_content: "\000\000\000\000(\000\000\000"
      }
    }
  }
}
node {
  name: "bidirectional_1/forward_lstm_1/strided_slice_4/stack_2"
  op: "Const"
  attr {
    key: "dtype"
    value {
      type: DT_INT32
    }
  }
  attr {
    key: "value"
    value {
      tensor {
        dtype: DT_INT32
        tensor_shape {
          dim {
            size: 2
          }
        }
        tensor_content: "\001\000\000\000\001\000\000\000"
      }
    }
  }
}
node {
  name: "bidirectional_1/forward_lstm_1/strided_slice_4"
  op: "StridedSlice"
  input: "bidirectional_1/forward_lstm_1/recurrent_kernel/read"
  input: "bidirectional_1/forward_lstm_1/strided_slice_4/stack"
  input: "bidirectional_1/forward_lstm_1/strided_slice_4/stack_1"
  input: "bidirectional_1/forward_lstm_1/strided_slice_4/stack_2"
  attr {
    key: "Index"
    value {
      type: DT_INT32
    }
  }
  attr {
    key: "T"
    value {
      type: DT_FLOAT
    }
  }
  attr {
    key: "begin_mask"
    value {
      i: 3
    }
  }
  attr {
    key: "ellipsis_mask"
    value {
      i: 0
    }
  }
  attr {
    key: "end_mask"
    value {
      i: 1
    }
  }
  attr {
    key: "new_axis_mask"
    value {
      i: 0
    }
  }
  attr {
    key: "shrink_axis_mask"
    value {
      i: 0
    }
  }
}
node {
  name: "bidirectional_1/forward_lstm_1/strided_slice_5/stack"
  op: "Const"
  attr {
    key: "dtype"
    value {
      type: DT_INT32
    }
  }
  attr {
    key: "value"
    value {
      tensor {
        dtype: DT_INT32
        tensor_shape {
          dim {
            size: 2
          }
        }
        tensor_content: "\000\000\000\000(\000\000\000"
      }
    }
  }
}
node {
  name: "bidirectional_1/forward_lstm_1/strided_slice_5/stack_1"
  op: "Const"
  attr {
    key: "dtype"
    value {
      type: DT_INT32
    }
  }
  attr {
    key: "value"
    value {
      tensor {
        dtype: DT_INT32
        tensor_shape {
          dim {
            size: 2
          }
        }
        tensor_content: "\000\000\000\000P\000\000\000"
      }
    }
  }
}
node {
  name: "bidirectional_1/forward_lstm_1/strided_slice_5/stack_2"
  op: "Const"
  attr {
    key: "dtype"
    value {
      type: DT_INT32
    }
  }
  attr {
    key: "value"
    value {
      tensor {
        dtype: DT_INT32
        tensor_shape {
          dim {
            size: 2
          }
        }
        tensor_content: "\001\000\000\000\001\000\000\000"
      }
    }
  }
}
node {
  name: "bidirectional_1/forward_lstm_1/strided_slice_5"
  op: "StridedSlice"
  input: "bidirectional_1/forward_lstm_1/recurrent_kernel/read"
  input: "bidirectional_1/forward_lstm_1/strided_slice_5/stack"
  input: "bidirectional_1/forward_lstm_1/strided_slice_5/stack_1"
  input: "bidirectional_1/forward_lstm_1/strided_slice_5/stack_2"
  attr {
    key: "Index"
    value {
      type: DT_INT32
    }
  }
  attr {
    key: "T"
    value {
      type: DT_FLOAT
    }
  }
  attr {
    key: "begin_mask"
    value {
      i: 1
    }
  }
  attr {
    key: "ellipsis_mask"
    value {
      i: 0
    }
  }
  attr {
    key: "end_mask"
    value {
      i: 1
    }
  }
  attr {
    key: "new_axis_mask"
    value {
      i: 0
    }
  }
  attr {
    key: "shrink_axis_mask"
    value {
      i: 0
    }
  }
}
node {
  name: "bidirectional_1/forward_lstm_1/strided_slice_6/stack"
  op: "Const"
  attr {
    key: "dtype"
    value {
      type: DT_INT32
    }
  }
  attr {
    key: "value"
    value {
      tensor {
        dtype: DT_INT32
        tensor_shape {
          dim {
            size: 2
          }
        }
        tensor_content: "\000\000\000\000P\000\000\000"
      }
    }
  }
}
node {
  name: "bidirectional_1/forward_lstm_1/strided_slice_6/stack_1"
  op: "Const"
  attr {
    key: "dtype"
    value {
      type: DT_INT32
    }
  }
  attr {
    key: "value"
    value {
      tensor {
        dtype: DT_INT32
        tensor_shape {
          dim {
            size: 2
          }
        }
        tensor_content: "\000\000\000\000x\000\000\000"
      }
    }
  }
}
node {
  name: "bidirectional_1/forward_lstm_1/strided_slice_6/stack_2"
  op: "Const"
  attr {
    key: "dtype"
    value {
      type: DT_INT32
    }
  }
  attr {
    key: "value"
    value {
      tensor {
        dtype: DT_INT32
        tensor_shape {
          dim {
            size: 2
          }
        }
        tensor_content: "\001\000\000\000\001\000\000\000"
      }
    }
  }
}
node {
  name: "bidirectional_1/forward_lstm_1/strided_slice_6"
  op: "StridedSlice"
  input: "bidirectional_1/forward_lstm_1/recurrent_kernel/read"
  input: "bidirectional_1/forward_lstm_1/strided_slice_6/stack"
  input: "bidirectional_1/forward_lstm_1/strided_slice_6/stack_1"
  input: "bidirectional_1/forward_lstm_1/strided_slice_6/stack_2"
  attr {
    key: "Index"
    value {
      type: DT_INT32
    }
  }
  attr {
    key: "T"
    value {
      type: DT_FLOAT
    }
  }
  attr {
    key: "begin_mask"
    value {
      i: 1
    }
  }
  attr {
    key: "ellipsis_mask"
    value {
      i: 0
    }
  }
  attr {
    key: "end_mask"
    value {
      i: 1
    }
  }
  attr {
    key: "new_axis_mask"
    value {
      i: 0
    }
  }
  attr {
    key: "shrink_axis_mask"
    value {
      i: 0
    }
  }
}
node {
  name: "bidirectional_1/forward_lstm_1/strided_slice_7/stack"
  op: "Const"
  attr {
    key: "dtype"
    value {
      type: DT_INT32
    }
  }
  attr {
    key: "value"
    value {
      tensor {
        dtype: DT_INT32
        tensor_shape {
          dim {
            size: 2
          }
        }
        tensor_content: "\000\000\000\000x\000\000\000"
      }
    }
  }
}
node {
  name: "bidirectional_1/forward_lstm_1/strided_slice_7/stack_1"
  op: "Const"
  attr {
    key: "dtype"
    value {
      type: DT_INT32
    }
  }
  attr {
    key: "value"
    value {
      tensor {
        dtype: DT_INT32
        tensor_shape {
          dim {
            size: 2
          }
        }
        tensor_content: "\000\000\000\000\000\000\000\000"
      }
    }
  }
}
node {
  name: "bidirectional_1/forward_lstm_1/strided_slice_7/stack_2"
  op: "Const"
  attr {
    key: "dtype"
    value {
      type: DT_INT32
    }
  }
  attr {
    key: "value"
    value {
      tensor {
        dtype: DT_INT32
        tensor_shape {
          dim {
            size: 2
          }
        }
        tensor_content: "\001\000\000\000\001\000\000\000"
      }
    }
  }
}
node {
  name: "bidirectional_1/forward_lstm_1/strided_slice_7"
  op: "StridedSlice"
  input: "bidirectional_1/forward_lstm_1/recurrent_kernel/read"
  input: "bidirectional_1/forward_lstm_1/strided_slice_7/stack"
  input: "bidirectional_1/forward_lstm_1/strided_slice_7/stack_1"
  input: "bidirectional_1/forward_lstm_1/strided_slice_7/stack_2"
  attr {
    key: "Index"
    value {
      type: DT_INT32
    }
  }
  attr {
    key: "T"
    value {
      type: DT_FLOAT
    }
  }
  attr {
    key: "begin_mask"
    value {
      i: 1
    }
  }
  attr {
    key: "ellipsis_mask"
    value {
      i: 0
    }
  }
  attr {
    key: "end_mask"
    value {
      i: 3
    }
  }
  attr {
    key: "new_axis_mask"
    value {
      i: 0
    }
  }
  attr {
    key: "shrink_axis_mask"
    value {
      i: 0
    }
  }
}
node {
  name: "bidirectional_1/forward_lstm_1/strided_slice_8/stack"
  op: "Const"
  attr {
    key: "dtype"
    value {
      type: DT_INT32
    }
  }
  attr {
    key: "value"
    value {
      tensor {
        dtype: DT_INT32
        tensor_shape {
          dim {
            size: 1
          }
        }
        int_val: 0
      }
    }
  }
}
node {
  name: "bidirectional_1/forward_lstm_1/strided_slice_8/stack_1"
  op: "Const"
  attr {
    key: "dtype"
    value {
      type: DT_INT32
    }
  }
  attr {
    key: "value"
    value {
      tensor {
        dtype: DT_INT32
        tensor_shape {
          dim {
            size: 1
          }
        }
        int_val: 40
      }
    }
  }
}
node {
  name: "bidirectional_1/forward_lstm_1/strided_slice_8/stack_2"
  op: "Const"
  attr {
    key: "dtype"
    value {
      type: DT_INT32
    }
  }
  attr {
    key: "value"
    value {
      tensor {
        dtype: DT_INT32
        tensor_shape {
          dim {
            size: 1
          }
        }
        int_val: 1
      }
    }
  }
}
node {
  name: "bidirectional_1/forward_lstm_1/strided_slice_8"
  op: "StridedSlice"
  input: "bidirectional_1/forward_lstm_1/bias/read"
  input: "bidirectional_1/forward_lstm_1/strided_slice_8/stack"
  input: "bidirectional_1/forward_lstm_1/strided_slice_8/stack_1"
  input: "bidirectional_1/forward_lstm_1/strided_slice_8/stack_2"
  attr {
    key: "Index"
    value {
      type: DT_INT32
    }
  }
  attr {
    key: "T"
    value {
      type: DT_FLOAT
    }
  }
  attr {
    key: "begin_mask"
    value {
      i: 1
    }
  }
  attr {
    key: "ellipsis_mask"
    value {
      i: 0
    }
  }
  attr {
    key: "end_mask"
    value {
      i: 0
    }
  }
  attr {
    key: "new_axis_mask"
    value {
      i: 0
    }
  }
  attr {
    key: "shrink_axis_mask"
    value {
      i: 0
    }
  }
}
node {
  name: "bidirectional_1/forward_lstm_1/strided_slice_9/stack"
  op: "Const"
  attr {
    key: "dtype"
    value {
      type: DT_INT32
    }
  }
  attr {
    key: "value"
    value {
      tensor {
        dtype: DT_INT32
        tensor_shape {
          dim {
            size: 1
          }
        }
        int_val: 40
      }
    }
  }
}
node {
  name: "bidirectional_1/forward_lstm_1/strided_slice_9/stack_1"
  op: "Const"
  attr {
    key: "dtype"
    value {
      type: DT_INT32
    }
  }
  attr {
    key: "value"
    value {
      tensor {
        dtype: DT_INT32
        tensor_shape {
          dim {
            size: 1
          }
        }
        int_val: 80
      }
    }
  }
}
node {
  name: "bidirectional_1/forward_lstm_1/strided_slice_9/stack_2"
  op: "Const"
  attr {
    key: "dtype"
    value {
      type: DT_INT32
    }
  }
  attr {
    key: "value"
    value {
      tensor {
        dtype: DT_INT32
        tensor_shape {
          dim {
            size: 1
          }
        }
        int_val: 1
      }
    }
  }
}
node {
  name: "bidirectional_1/forward_lstm_1/strided_slice_9"
  op: "StridedSlice"
  input: "bidirectional_1/forward_lstm_1/bias/read"
