node {
  name: "bidirectional_1_input"
  op: "Placeholder"
  attr {
    key: "dtype"
    value {
      type: DT_FLOAT
    }
  }
  attr {
    key: "shape"
    value {
      shape {
        dim {
          size: -1
        }
        dim {
          size: 300
        }
        dim {
          size: 1
        }
      }
    }
  }
}
node {
  name: "bidirectional_1/forward_lstm_1/random_normal/shape"
  op: "Const"
  attr {
    key: "dtype"
    value {
      type: DT_INT32
    }
  }
  attr {
    key: "value"
    value {
      tensor {
        dtype: DT_INT32
        tensor_shape {
          dim {
            size: 2
          }
        }
        tensor_content: "\001\000\000\000\240\000\000\000"
      }
    }
  }
}
node {
  name: "bidirectional_1/forward_lstm_1/random_normal/mean"
  op: "Const"
  attr {
    key: "dtype"
    value {
      type: DT_FLOAT
    }
  }
  attr {
    key: "value"
    value {
      tensor {
        dtype: DT_FLOAT
        tensor_shape {
        }
        float_val: 0.0
      }
    }
  }
}
node {
  name: "bidirectional_1/forward_lstm_1/random_normal/stddev"
  op: "Const"
  attr {
    key: "dtype"
    value {
      type: DT_FLOAT
    }
  }
  attr {
    key: "value"
    value {
      tensor {
        dtype: DT_FLOAT
        tensor_shape {
        }
        float_val: 1.0
      }
    }
  }
}
node {
  name: "bidirectional_1/forward_lstm_1/random_normal/RandomStandardNormal"
  op: "RandomStandardNormal"
  input: "bidirectional_1/forward_lstm_1/random_normal/shape"
  attr {
    key: "T"
    value {
      type: DT_INT32
    }
  }
  attr {
    key: "dtype"
    value {
      type: DT_FLOAT
    }
  }
  attr {
    key: "seed"
    value {
      i: 87654321
    }
  }
  attr {
    key: "seed2"
    value {
      i: 3298806
    }
  }
}
node {
  name: "bidirectional_1/forward_lstm_1/random_normal/mul"
  op: "Mul"
  input: "bidirectional_1/forward_lstm_1/random_normal/RandomStandardNormal"
  input: "bidirectional_1/forward_lstm_1/random_normal/stddev"
  attr {
    key: "T"
    value {
      type: DT_FLOAT
    }
  }
}
node {
  name: "bidirectional_1/forward_lstm_1/random_normal"
  op: "Add"
  input: "bidirectional_1/forward_lstm_1/random_normal/mul"
  input: "bidirectional_1/forward_lstm_1/random_normal/mean"
  attr {
    key: "T"
    value {
      type: DT_FLOAT
    }
  }
}
node {
  name: "bidirectional_1/forward_lstm_1/kernel"
  op: "VariableV2"
  attr {
    key: "container"
    value {
      s: ""
    }
  }
  attr {
    key: "dtype"
    value {
      type: DT_FLOAT
    }
  }
  attr {
    key: "shape"
    value {
      shape {
        dim {
          size: 1
        }
        dim {
          size: 160
        }
      }
    }
  }
  attr {
    key: "shared_name"
    value {
      s: ""
    }
  }
}
node {
  name: "bidirectional_1/forward_lstm_1/kernel/Assign"
  op: "Assign"
  input: "bidirectional_1/forward_lstm_1/kernel"
  input: "bidirectional_1/forward_lstm_1/random_normal"
  attr {
    key: "T"
    value {
      type: DT_FLOAT
    }
  }
  attr {
    key: "_class"
    value {
      list {
        s: "loc:@bidirectional_1/forward_lstm_1/kernel"
      }
    }
  }
  attr {
    key: "use_locking"
    value {
      b: true
    }
  }
  attr {
    key: "validate_shape"
    value {
      b: true
    }
  }
}
node {
  name: "bidirectional_1/forward_lstm_1/kernel/read"
  op: "Identity"
  input: "bidirectional_1/forward_lstm_1/kernel"
  attr {
    key: "T"
    value {
      type: DT_FLOAT
    }
  }
  attr {
    key: "_class"
    value {
      list {
        s: "loc:@bidirectional_1/forward_lstm_1/kernel"
      }
    }
  }
}
node {
  name: "bidirectional_1/forward_lstm_1/recurrent_kernel/initial_value"
  op: "Const"
  attr {
    key: "dtype"
    value {
      type: DT_FLOAT
    }
  }
  attr {
    key: "value"
    value {
      tensor {
        dtype: DT_FLOAT
        tensor_shape {
          dim {
            size: 40
          }
          dim {
            size: 160
          }
        }
        tensor_content: "\267\374\316\275\274\364\037\274}\363\\>S\243\237\275u\226\334=\303h\343\273/\014\310<\374h\220\275I\006\222=\270\213\250;\032\327\214=\354\232\003=\327\'s=\332\357\025<\3750\001>\304\010\027\27699\030=i\251\372;X\202\357\273\364 \030>\032@\321=\304S\377\274\016R\377\273\254\031\020=fw{\274\266\343\013\276\006\214\r=\034\221N\274\265\313\232<f\345*>\243\223V\275\375\031E\276\257T\030=\342m9\274z\204\361\274%\335\364\2752Co<\320\205\210\273\376;\213\274\362\247<\275p\305\360\275\237\233\274=\346\340\214\2752\356\013=\276&7\275rt\302<x\265\021\275S\247+>\271\210\377\274\353\312\266\274\n\336?=\315\325\035>\251\234\352\275\310fU\275\227\241[\275O):\276!\321\247<\033^\025\2766\\t\274\337\202\221\274\257\300^\275\256Du=\001\321\277\275\263\333\310=0\351\252\275\313?\253\274\000\217\025>\377\024\374\274\006\020\031\275M\322\271=\271\nA\275t\2736>\223\362\226=\200\333|\275\0002\274<\306\232\256\273\360\322\300=\353\203\217\275!\351\023\276\003\334=\275\0351\003\276\3276\327=`g_\275>:-<\337&r=;\210\020=7\021\371\275\210\360\210\275\341:\276\274\371.1=\347\036\333\273RY1<\272\\6\274hu\235;xZ\341\274\240\007D\275\234\373=\275\247\362K\275_\226h=y\2154>\231\013M;\234\241(=\376\212\211<\352\214\261=\001\024\313;T\r\346\274\265N4\275\252s\236\274g\322c<_\300\021=i\005*=\231\316\010\275l!\001=\035\272\373=\236\342\201=\216W\031\276JM\346\273\322\263\226=%\244\006>\210x\035>W%\031\275\013_;=i\302\227\275\007u\021=\330\374\324<\007#\240=\031\245\236=\316\320M<\005il=\360\344\307<\222\035\017\276\371M\317\274\007=\257=\334\361\212\275\220\260\224\274\202\246\201\275\337\211\005=\250B\310=;!\302\275\357i3<\0023V;\014c\207\275\232\301E\275\031\374\026\276*\325\220<B2@\274\247\230\245\273pFx\275\224Q\336\275\263\271\260<8z\211:\037C\362\272\310F\204\275\177T\233=\302e\221\275\037QH>[t\005>\366P\220=\356P\204=\361?\215\275\246\003\034=\035\215\246=\263\222\331\274\301\240\243\275\2528\276<I\237+>^\221h=\272b1>\241,\261\273\'\333C<\325\350\347\274\222_\246\275bAJ=\242\006\252\275\223\007\352=\031n\024\275\211\235\004=\326}\334<\362\341\352\275\316\235\214\273\230\213\230\274+@\020\276\252\360\215\274\202\023\203\275\340\'9>\177\205\253\275\006/K>\255\245\3529jg\016=\210\245\r>\255Oi=\301\273,\275&s\264=\274\207\006\275/\2330>\247\373\'=bb\321\274\223g$\275\320{\"\276\370\373\236\275~\246\316\275e\\\321\275\276\307\r\275\361\032\025<\005V\252\275\303\336\262:\240\254\271;\351\210\r\276\000\267\233\2752\240\265\275\324\347\316\274\271\215\373\2759\341\207<\254\327\255\275\235r\303;\363\347\227=\244\314\253;\316\023\357=O3+\275\326\025\271=\215\033\200=\366\301\307\275\277\203\360\275L\247\205\275\375-\301<\\\200*\276g\250s\275\005o\214\275\003N\222\275\257\244#=*U\217\273\202\216\223=JCV\274\205L\251=\254\325\304;+/D>\373\027\262=\324V(=04\224\275\242\035;\276\031\356\206\2756\"&=\267\350:<\300\326\364=9\247\355<*U\217=\363\215M\275P\255\241\274d\313\241<\327\000\254\275\257z,=\205\333\331\274on\177=\376\234\250<\024\363\360=\237\343^=F\315\204\275+\236\032\276\010\333g<\260\216\373\275\314\002\356\2752 \017>\276\365u<\217\325\237=\312\212\343\273\340\262\326=\222\352A=\230\342Z=\201\221o;\322\210V;M\240\205=C\331Q<`g\'=bSa\275\317\342\031\276f\022\030\273`\304\327\273n\226\370<\234\324\255\275\376\252\030=\305\374\231\275\234\3024=\244\307\372<\2155@\275i\336\232=f\363\313=%\232\245\275\200ek=\247\177*;\327\347\306\274\320be=|\225\033\274\357z\356=\335\005\017>1\350K=\320\321\333\275\tP{\275&\304\306=^\356\210=vl\222<|\265\025\275\245<\360<\307#V=Z\367\216\275\273\342\232\275\252\203w=\341\340\213\275\035\031=\275\255\2431:\357\366\021\274f\250\212=O\263\216<HU\261=:_O=\355\332>\275\315|\022\275\\vc\275\263\224<\275l~\230=\201\250.>J@\305\274\246Hg=7\256\252\275\216h\365<L\033\261=\254\3279=P\253\352<\224|S\274\370\336\340\275\371\007\223=\337b\t\2742$\323\2736\010\017\2746vQ\275\201\325#\274\217Pg\275\000\034\204=\027w\002>\346\363)>F\322\023>\362V\335\271\267M#\275l\017\205\275\005\230\203\274\264O#;<\235N\274\224^\252=\030\000r=\311\334\330\275\253b\221\274\316\221%\276\255\207\265=Jt\221=\364\'\264=\330\322\310\2755\312<\275_\320*\275q\277\241<\2540\005>\370\034\013>}\364\214\273\211\003\205=w\002\235\275N\357\234\275\'Z\244<\301\220Z=\027!\307;U(I=\353\236\204\2757N\321<\3315g=\304>T=\014\224\314=H\275\377;\001\314Y\275\210\027\351\274\336\"d\275\227\226\031><?4=M\2717\273\336f\003\275y\342\241<\351\r\237<\000Z\214=\262\227\026\2764]^<\350n\004>F\017\\\273\270\036\271=\274\207\002>x6\337\275\311h\217<\274+\275<\341.\312=\201\232\207\275\313P\007=\276TX\275\013\034\272\274\341\245\237=dU\257\275\020\240q=\202>\326\274\353\365\340=\3753\335\275\211\267\000<P)*<\211\236$\274\203\3601<0\n\355\275\020\235#<^d\324\274\2445W=}\001\020\276\203\250\236\274\005\262\332\274\3149^\275\364\007\271=\233-;\276T\221\257\275V\0258=o\245\356\275\331.(>Rg\227<\373=o<gt\035\275\346\305*>\343V\225\274\235|i<\177\212\241=\2073\247\275\005\263\310=\374\363\333\275M\334\236=\002\004M\275\357\014\240=\327\033\370<`\000e=\004x\252=I$T\275\224\340\033\276\317\377;=\\\205g<@\tw\274y`\020>r\214P\275\014\213\306=V\034\262=\006%\263=c\227<\2754C\025\274\rJ(\275Bx\307<\307\365\356\273\370\223F=}\234\014:\211\036\304\273\004\024h>\037\001\272\275m\236$\275\314\313\313\274{x5\2769(\372<\216\364\356=m\327\234\274n\\\023=\363\025\210\275\022\371?\276\247E\014\274\365\340\226\275#\2077\276\031[\300\2748c3\275\334\326|<\210\031\'\276\205\201^\274\240\330\334\275\036X\210\2758Di\274\035\000M\274\226\017\273=\tIi\275KK:<\230+5=\234\317\275\275\327:\321<\332m\306\275\0367\313=.\370\007\2760\322@\274\232Yl\275\033\304\232=u\351\237\275\r\345x\275\034\302Q<\246\343\201\275\r\237\317\274\177\266y\275JH\023=\2364\036=\005\366\324\273\027L\273\274\263\023\243\274\313\371~\275\230\233\211=+\355z=q\315\t=\2048q=\343\264(<\016\250A\275L\354\373\273\033\363J>\343\330\016>1\344\002>S\362U\274s\307\235\275\211\223\023\275/\276\366\274Wf\346\275$(\016\275E\371\271\274.z<\275jsQ=\035Y\316\275\236_,\275\372\024(<u\223\324\275\030q\236\275\312(J\275\004O\037\276\255 \223=f9\216<%\310\231<\230:\210\274\260\327\270\275\320c\202<\336T\360=\261.L\275w\364?\275\250\365\300\275\224\303b=\372Yi\275\276\357q\274\376\216\327\275\033\214t\275\2679G\275wP\271=\347\324,\2743)\177=\217\030\305\275\245\360k=D \030\274\013\022\253=\360<\032\275@\\\337\275\014\347\321\274\263\306\005\275\373\257I=\001e\232\274\000\344K=\007@|=2\240\205<\320\312\340<\240wG\275\004\030\233\275X\345\231\275;\014\363=\2176\334=\003\314\'\274\344\360?\276&\215\034\274\"\ri<\241\204\004\275&U;>\3229;<\215\254\333\275+\037\206=2k\277\275_\214\244=\000\306\'\275pe\213\275\336\021\225\2758;\005=2\204\211\2759.\272\275+Ei\275@V\177\275~\317\314\274t\266\017\275\253\032f\274E8\004\276{p\211==\003M=PM/=\006\261C\275,\214#<\221\243\214=\024\2123\275\344\035\372\275,\244\263\275\260\212\001\276\223]\316\273\211\253?\274*\266\272\275\351\347\007\275j\004\330<R,->l7>:\200u(=\360E\014\275\2463\023=3\201)>\256\304h\275\210s\203=\304\310\t\276l\217\212\275\201\337e\274*\303\016>\205\210\267\2756\021G\275\261\215\365=-xV\276hm\033\276\253\371\264\275L\261\257\275\307\030A\276Q\ns\275Q \212=\245\236\265\274\343\273!>\0212\355=\371\010\240=h\367.=\016\035\343=\n e<\033\032\233\275\366l\374<\272J\276<\325\204\000>W\341+<\250A\004\276;\347h=\002\260\221=\265H\r>4\003J<\265\267?>\331\323\320=\\\204\022\276<\210\031=\346\210\331=\\<\020\275m\023\266\274e\n#=\362\234\005=K\351\301<\300\220\262\27532&;BZ7=xb\214<\024^%=.\350-\274\244\034\010=\026\344i\275\351\361\326\275}\204\356=\264\223\212\275\251y\205=\247\003Q:\2578\226<\363\026\205=\306\204\303\274\343j\301=V=\032=\353\366.>\027\273*\276P\216g\275\345\266b\275\025\2120\273\021#\311=\343\242\031>\033\357!>\247\272!\275\266\204\304\274\021\231\016\275\276\251\333<C\326^=\004\253}<\203\376\n\274\375\3548\275\267 \257=~\031-\275\340\334\234\275\016\272\253=\333c\213<\273\370!\275\022G\341\275\305\335*\275hS*=Q\211M\275\342qL<<\220\323\275G\010\321=C\271\3409\'\"\347\274\233\356\t=\334\036\364;\272G\314\274gb^\275\257\202\250\275u\275\251=\327u5=TR7=\223\036c\275\216\302\242=\205\260\237<\345\302\376<\210\241\t\276\366\305\223\275\207J\355=\226\230\234\275S\270I\275\320p\221\275\0279\223=\3132\367<\\(\021=\031\204\373\273G9\013\275\264r\332\275|\251\'\275]+i\275M\205\300<R\227Q8\322\000\205\275m\325\033\275\335}\225\272\235\023\305\274\273\341k<\346\276\241<E\246\377=\217\351\320\274\262\374\357<\250r\022\273_\224\300<\250\234^\275p\305\277=pC\255=\256\'\262\275\375\245\225<\323@\037>V\315t=\207\'\000=\213\321\207=\352\364&>6\352\303\275\362\240\372\275m\310\030\276t\212\215\275\357\250\314<\333\332I=\216\000s\274\271s\000\276\036_\344<F\377\301\275f#\215\274\223\236:\275:T\237\275\343N\234\275\312o=\275\205\320\216<\016\361\036\276l\032C=\227\0305>|e\353\274\315\365T>_E\213<\210\277Z\274=\224_\275\013&\325;k\332)>\037B\025\275\221L4\276\366D\205\275\3607\301\275|=\250<\223h&>\237y5=\273;\024\276B\023\207\275\357\235~\274o\334\003\275\361\233\361=\302\346\204=\252\221\250\275\367Z\256=\0175\237<\014\2338\275VS7=|\2200\276\274\314\036\275\231\371\342\275@Q\300\274\352\347\212\275\037\316Z=/\201 =\027K\235<TK\232\274\235\315^< \\F>\351!V\275\362L\"\275\036&\034<\324\307\252\275\t\252\034>\360s\257\273\320<\227\275\300WD>\377\344\331=\250\370)\2759\2605;\025\300\320\274\'\2020\276^FC<-V\212=\256;\216=1\332s=\222\2225>\375\212\037>An\260\274[d\020\275.5\272=1\034\273\275\366!\214;;\341c<\021\274\021>\376P\273\275=\317\363\2742t\020=\300\213\367\273\200\336\027=t\3465\276\003\020\243=\211\363\204\275\340v\363=\032K\241\274\010;\350\274Y\304.;\032I\276=*\326\200\275W\237\257\275\0258\340\275\003Z\300=\234i\371<g[x<\202\350\021\275\350u\321\275y\n\234\275\017\2239\275\307\252\343:yzr<\277\256\363\273;3Q\275\356\323\363<g\245i;\355\316\335<\234\315\005=\332*\366=n\355V=\267\373\300=\245\016\'>\310&u=\275\362\334=S#\006>\352\211\367;\177:)\275\365\366\322\275\301\035\233=~\344v\275(\240\230=\0348\231<\344\330!>\301\023\366\275\300\360\346=\010a(=2\025w=\317j\003<\021Lo=,Y\357\275\311\311\233\2753\316\t\276\300\263\237\275$\037>>E\356\316\274\247^,\275E\245\245\275\001\256\216\275\336\275\020\276G\267\205=7(\265<\033/\007\2762;\033:\331#\257;`\225\017=\330d\032\275\254\224@<OL\314=v?s\274\026\226V=\337N\000>\270\343\306=\017\357\'\273\024u\234\274\344n\220=wzu<\241>\246<\020\226\220\274\036]\347\275\2013\210<\n\254\002\275\352\263+\276}\023\263=\014\344\261=\332\212G\276\336\260\252<\202VR=] \230;LC!\275d\202>\275\353\231\337=\177P\005<\213\206\376\273\332T\201=\262\372\246=\036\301X<@\2554;\001\3651={\362\225=\303\231^\275\177\037f;\261[\226\275`\010\210=\327\237@\2755\024\r=\035\221\242\274\334\n\316\275\245\3575=.U\222=TFw\273\026\224\313=\225\316H\275\036I\226\275\370\326\262\275\235#\r\275dt\321<\262~\036\276\177\3061\275b\341a=\310\316\244\275\253\366c=-C$=\335\223b\273\376\211Y\273\377n\236\274C\201\353=uh\213\275f\257\276=\017\302\301\275)\010I\274$\355>=\342\265\307=\270+\261<\033\326(=!\0102\274\371m\302=A\255\332=dp\334=\005\343\374;X\241\275<\277\220\322\274\363\254\361=\375[(=B\364@\275\225\305\267\273\021R(<ud\324\275H\253\334=\301\303\t\274e\237<=8\0249>J>\243\275\210\260\362<\341A\026=\270\216D=\240\014\223=\035\355+\275\222t\216=&_A=o\225\261\271\250<\035\2762e\373=Z\321\263\274\264-\350\275\023\253\301=D\361\265\274\007\354\016>\253\010\017<\205\025\206\275\305\0130\275\211\003|=y6\274\273\341\227\'\276O\367\t\275\341=\301\275\035{f\275>\031\205\275\254\311\275\275\276\215+\275\007\016\252<6\030`\274O\230\022>]\242\277\275\267\352\223\275\024\374?<\356,\235=\325|\236;6\315\205<\025k\350=c\004\243=\314k\205<\000\227\364\275\223F\371\273(\303Y=2\371\245<=\320\n\2752\234\306\275\007\304\202<\\\255\306=\177\253\037\276\306s\242\275\003-\266=!\364Y=\006g\310\274#w\031\276\217\246\232=\025\016\207\273\030\367\360;\252\013\312=\002BO=\357\343-=\2069\210=\004\322$\275\356K\366\275\306\225\245\272\261\006j;\016Q\312;=+<\276#\001\305\274\267\2719\275\326\245\005=S\224\300=Z\265\326<0\255\254=z\215\243\275G\311=<\210$\333=\320~\301=\330v\315=\240\220\233\275<\177\203=\030L\223\274\030_\024\275\340\022\016=,@\201=Z\177M\275\3117?\275+\277\214=\017M\360<-\223\203\275p\331r=\203\177\"\275!l\272=\240\022\225\275U6e>m\302\227=\256\313\245\273O\235\203>\203\\\320=\010G\224\271\326\376\203\272=\251\006\276\244m\217=B\230\215=\231\352\242\275\320\247\354\275\337;\310\275\374\034\207\273Z\330\"=\023\021\312<\005\030\212=\\\177\226=#P\343=\246M\326=\304\270\264\275GC8=\215\177 \276\202\372R<.\314+<\343i\273\2753*\366\273\364a\246\275\245\307%=\354\037]=\030q\006>cu\000\2732s\002\276h\001\257\274\001^\236\274\375\251\242=J\337\361;\275{\231\275\tJQ=x\257\t<\373\206\202\275\255\202\363\274\303\'\262<\177)O\275O\033\376=\231\250\203<\'\257c\274)jK\275\370\253\256\273\215E\017\274\341\203\023\276U\037.=\023G\003\275\212\277\316\274\264\0033=W\301\006>\236\004\333\275\241!\252\271?\000S=U\352\257=\331\301\022\276{T@=\305\273D=\023[\365=\003\030\220=h\265\204<\261\222^=tj\205=6\351\031=e\225\251=\373{\253\275]\244\324<\332\216.\275\372\342\331\275\215v\256\275\242N\274\275e\017\322\275\235)\035=:V\024>\255\235\271\272\242\345+\275\025\001\200\275\203\025:<\3355\346<\230\323\025\274\246\346\234=\2279H>\226B\001\276\343\037\205\275\261\342\327\274|\031v;\223\313\324\275\025\331\252=H\305\326=uo\221\274\\|\363\274[\361?=\375\002\245=\324\306\334\275\262\255\\\275\211\372\340=\341\260\300<\032\035\275=ez\234=\227c\251<\235\214\022\275\234\'\205=6\235}\275z[\250\275\351A>\274W\372\223\275~;\326=\324\264\211=\306\250J;\022j\024\274\n<\257<\264N\245=;I/<b\202\000>\366\020\224\272\020\310\r\274\253K\330<\014F\013\276s\025\025\276|\2675\274\213\240\206<\373\\\211=\342\004\235\275\314/\344=\235\210V\275\\9T=hy\312=e\006j\275\316\301\274<\361p\275=\277\305R\2751\014\r\276\237?\340;\203\225\220<\034\377\210=\264\016o=\035V\272\274:Mq\276\024 \226\275^\332k\275\271\346\335<\352\022\243=\204\332==\335\026\205\2758y\330=\205\271\222\275\200N\177\275\262t\341=1\206\242=\206/\353<\323\273\251=D\016\314\275\364\235>\275F\361->8W\005\276\333Q\025=\030W\372<\007\367\363<\212n\033\276\003e\000>\202\021\221\274\230\316\254=Mv\235\274\257D\007\276z\350\265<X\245\272\273\360\014=\2752`c=QY\247\274\320\231\254\275\206.f\275\346t\037\276\322Tn\275k%\002>C\312\217\2732\032i\275\330|\025=\261\325\"=0IC\275\231\036\177\2754i^\275\301\205\016=\031\273\023>-\366\336\275\n\220\'\274\351\014\252=\361wL>\354U\226\274\022\3236\275k\331w<\344@\356=\311#\000\276\027\033\236<\026.z=\277\365\206\275u\372\317:\305A\227=\254\023\t=0\250\253\275\311\332\241=\300\217\006\276ci\223\273r8\371;<\236\301=\350\326\013\276\3622\241\273\342y\025\276\227\240\264\275\365\252^=\236\034Z\274\222g\242<Z\264\240;DF\230=\235\270[\275\017\201\253\275\367\312\026\274\204\005\232=\277\301\'>B\360\350<\315w\353\274\371G\302<K\321\036=j\007\307<\277\334`=t\204:\276\326\201\245\274\252#\251<x\265\231\275\243\263\301\274\177V;<\005\355\032>*\255\320\274\220)k=/\276\234=\022y\351\273.\246\316\275\\\032T\274Z\233\362\271}y7\275\371\354\010\276\217\314\334\274y\335S=4\203/\275\306\232\020=\365h\017>|?u\2754\\\013<\351\021\200\275F\273m\275a\204@\273Zl\010\275\006V\025>\n;0=\221\236\244\274G\022\014=\245RS=\013\003S\275\2444\332=\370KR=\347e\305\275\355\n\337\274\321\253\333<\177\335\034>\212\237_\275\226Mk\275\207{\232\275p\237\202\275Z\336\254\275\251\367\216<\031\353f\275\370l\371=\201\240\234<3\213m\273\364\230\347\274U\205)\275\250G\n\276\\\352\357\274\304\313\225=\373\371\347=\374_R=\322\372\252\275E\321r\275\251\023F>L\2052>\257Tq=\336k\007=\263\247*\274@6\236\275\317\035!\276\223\214\205=4@&\275\031l\216\275\304\3305=\317xj<\001Ni=\240\264H<\251#+\275\262E\013\274\341WD=0qw=\366H\337\275\001(\003\276M`N>\207\377\030\275\226\177\031\275)\022U\274\277|U\275\377/\'=#\324\226=\014\351\262\274\377\346s\271\361\273\246<\022\333\222\275w\246G=\314N\223=\036\371\342=\250Tn=\344 9\276\001\272\377\275\314J\343\275\332\343\204>\325\204(\275\355$\374<;O\023\275\255N\212\275{\007\267=C\354\031\275\305m\202<j\034\342<x\021\302\274\rZ\225=\007\031K=\272\366\245\275\334\202\306\275\216\317\365<\304\320\211\2751\363\324=$\231\345\275L\033&\275\213Z\254=\004\265\256\275p\355\203\275\351\022\031\276\302\250\274\275\246\221\241\274Mn\257<]\3464=\34579=\371\227\324\275\223\244\305\275\016v\245\275G\360A=\'k\221=z\344x\274\236\313\213=\335\217\206=\'R*\274\241\226\262\275\232S\270=\233e\021\276w=\016=(h\003\275\232\3220\275\240\3333<L\251A\275x\343\027\275\237\326\226\274\265\321\307=w+\340<cEd> l\350<o`s;\006L\205\275\237oD\275\223\367\356<{\037\006=g\313\200\275M2\340<B=\377;Y\3311\276z\304\256=\031\274\342\275\345\367 =\013\035\253<B|\256\274\222\354\213=\363\2367\275i\326\242=NN\211=t\266,<ec\237\274\356\247\364<\263\005(=\312-j=\211f0=1\361u\275\343I>\275LI\341\272g\233\374\273\227\203&\274q-Q>\346\322\206\273u\207k\275\226\331\370=\325\251\343<\\\350\026\276\303\246\337\274w\351\354\275\211u7\274\273W\n\275\344\262\265=\255\222\253;&\261\010\276r\240_\274\001(\222\274\327\226\2639\034\030\013\274[\345\216\275eg\361=\215\217\001\274\311\227j=\340\273\365<\336\n\014\274w\233\327\274\340 \355=\334\266%>\246f\223\274\323\335\206\275G\376\370=\345\021\207\275\253\034\334=\216,W\275\250\207\005\275\340\244\221<$p\310=\356\027\321;\211\300\023\276\243\007\r:k\016\344\275\216-\307=^\335\262=0\226\270=\301$\353\275\016\367\231\2759(v=\300:%>J\200\203\275\344\033\267<\342\267\'=\262\374n=.\033\236=\313\203\036\276Z\327a\275f\'Z\275\020\241\223\275x\263J\275\024\330\340=\003\373\210<\271\024S\275\241\251\257\273\301\315\274\274\201\241\031\275\367\321y\275#G\032\275.X\357<S\3108\275\264@O\276\377\r\211<\026\230\020<?`7=[R\355\274\r\371\n=\355\260P=]\032\203=\377\303\323:c\033\004>\356\024y\275\220!%\275\310\325Y=@g\234=^\333\342<\027\202\277\2744p\240=\231\212\034\276\213\006!>j\227\274=a</\276\241\373/<\232\210\"\276\014\313X=!\277\031\276b\232\257<\332\024\231;\364\345\307<\374\033W\275\226\352\275=\227\224\233=t\233\024\276$\315n=gx\353=\352\351\273=fo\037\276\220pr\275(f\010=\250\026\334\274\342\221\261\275.!\307=\002\031\372<S4|=\241C\017\276\037bg\275\205xy\274\002\256}=L\221i=j\347\207\273\317h8=C9\375\275\320\202\262\275p\221\270<\207\213\304\275R\373\246=\317\265\321\275\365,l=\321\373\363<\327\374,<\030\021\330\274\306\3755\275\206\032\303\275tH\337\273\226\261\360=\307W\231<\220\'\227<j\n\223=\234X\340\274\204\233z=\305\0314\274#9\220\275\2525\247\274U\375\261\275\000j\223\275%Dl=\005Q\335\274\306\376\177\275\216r\356\275\237\005a\275\320rU\275~\227\235\274\274\020\"=\310\017\344\275\223\277_\27571\341=\225\0178\276A]\376=\207\032R\275<::=\203\310\221\274\223\273\255=\372\232\027\276+\244\010>\216\361\\\275\246\345\354\275\360c\026\272\267\325,=S(\255\275\2772\205\275A\025\221<\341X\032>N\0046;\356\305\222\274e>4>\325\037\221=\332{\374=\207\"X\275\260\017\314=<\261k=\256\342\360=\216\202\017<d\272\235\275\225\307\343<\365W\r\275\312P \276\331\336\206\275\375\351\302\275\211,\033\276\250\022\233=i\277\216\275\246rj\275T\316f<\010\267\\<\010\325\312\273\225/~\275\345|\314<\324\206\214=\236n\234=E\317\232=J\036\335\274\210\213\324\275\345,\210\275\210\234\005=\223\303\001>\263s\363\274\005\003\202\275I\260\252=qBB\275\300\235\002\276\276\327\243\275@6\270\2750d\203=R\316x=17\263\274\"d\256\275B\327\256\275\241\000\357\274\364\360\346\275d:T\275\200|\237=\245b^\272~uC=\223q\231\274*\242\r=|{\341<\260\020\305=\022\211\260\275\333\370\306\274\353u\232\274vs8=Ms\254=\303\204P\273E@\203\274\266I\202=}\360$\276)\307\214\275T\375/=+\307\021>\371E\t>W\0304\276\235*&\275\250\345\004\275\235\372\025=\214\177\263=\226\312\301<\206\202-=~\305\026=g\275\241\275+\252\275\275f\230==P\356\200\275\034\244E\275t\303\273=\027\330\313\274(%?=\216\034\362=\360]\300\275p\201\036\275\305\355f=\275R =GqF<\343ZE\275Dn\202=k2\210\274\233\201L\276.\224\272=\360\236\255=@\007><\341\020(=\244\214\301\275,\224\035>s\347\371\2753\375\005\276Y\000\213\275\322,(\275\307\031\326\275U>M\275\377\203\201\275\224q\202\275\001IE=\326A\036\276zJ\302\274\317\352\311\273}8s\275U\352\177\275\315\343\020\276/\233\177=\2376\002\276W)\220\274\025\212\025\273\005\222\037\275\213\275 <\r\377\356=\250;p=\355`\254=\360\376\252=\026\\\'\275\306`\226=j \315\274\303*\302=KX$>\347,=\275B\200+;\343\211\301=\224\006\361\275\374`>\274\030\024\\=\250{\332\274}\331\342;\262\334\374\272\355O\024<\022\344\223\275\204\033\330\273s\261n=3\215c\275\340\256\264<\316O\252:H\366\006\276\360\300\241=\266\223-\276\277\315\377<\0346\204=g\374*\275\2745<=\003M-\275\211\3674\274\304\\\244\273\2215\320\275\237\274\330<\366\361\n=\n\266\205\275\"\2073\274\217\006\201\2750\252\233=A\304\254=\254\352\220\275\030E\222=\tp\001>i\027;\2757\255\375\274\353\325\241=\333T2=}\276\204=\240\341)\276[\243\026\276\n\013/\275\314HE<M\363^\275(\260\016\275\340\201\251=\367]\246\275]\261\221=\310k\003>\311\304\322<\032\307\216\273\006\200\326\274\'g\210=\357sW\276s-\322\274\363\205\025\274\365\257\355=\025\276\235\272\3761A\2769\213D=\225\352\320\275\251\253);\340U\314\274\250\3669\275\236@\200>Z\217\351\275\226\347\231=\311\345\004>t@\013\276h\363t\275h\336\021>3\231\240\275\036j\277=x\027\007>\315Mb<\221[1\275\333m\352=z\\\350\274\335\274\304=\343`E=\005\306\343=\212A\274\275>J\004\274\327\271\034=C\014\252\273\357e\261\274A\016W\275\262\302$=\240\310\031=\022\332\327;\252\355\t\276\026\273\271\2755\3228=0\354\254<\245\236\327\275\332\201\207;@\232\243<\366\302\355<i\211\273\275\307\2331\275\024 \230<\201\363\026\276m`\216\275\262\326\335\275\033%\222\275\230K7=\020Oe=n\374\'\274\367\326\251\275xL\025;~8\316=H8::\177\200E\275B\376*>7*@=\001\371i;\336\273X\275\271\2204=\324\325!>\244\322y\275\001c\364\274\254J\215\275\334i\021\274/\006\'<\3313\261<\2020\242\274\365Z\017=5\266)\276>0\354\274HO\203<kN\231=r\276X<-\r\226=\255I\226=\265\242\235\273\321P\023=\235\342\361=\264g\336\275\2358\302\274>4%\276\272\177|\275\374F\324\274Tf\227\274v7\262\274t\272\220\273\365\262\005>f\021\030=\270P\202<\225\030\317=\225V\336\274F\306\270=\207#\366<\242\211\313\275\tw\001>\025h\247\2753\346\263\275\336<\235=\374\221\r\275\001\227.\274uP%=\"\373\216;\227\237B=m\352_:<\r\235\2758\336-=)\370\000\275\274a\231\275\007\340\320:j\262\331=#S\357=\022\025D\275\330/\002>f\370\377;\257#\207=\335\301#=%\242\027=\302\314\242\275\033\275\265\275g\303\272\2728J(<\3127k\275\273E-=\216\n\n=\325\036\'\276\314\237\331\275\"ZR<\217OG\275\304\311\213\275U\035\215=`\325!\275\355\276M\275^F\256= \"f\275\224\240\240\275\031qi<\020\253\233\275\374\022\376<\313\335\016=^I\213=\356 \247\275\341\2363\275\270\363\224\275\025g*=\222\217y=\260\226}=l\345\177=\004\317Y\275jI\241=\004\2363\275\017Tg\274\215y!\274\353\265\364=\334\253\006\276\021\236\321;\214\2170\275\226\035\000\275\002\370*\276\320\302\203=\370K\300\275\037@\213<\017*\275=\221\303\005\275\212\265\217=\305F\217=\225\321\310;-n\362=8\027\356\275\021\273\357=\272`Y\276\273\334^=\205\245\227\275\177/\034=\257\236\304<\274\017\231=^\016\354<5\260J\275\354\247\234\274CeE\275\326\362\206=\311q\221\276\327\226$>\207\216\177=\351U\024>f\254\315=2\346D=\324w\014>\254\212>>\3572&\275M\262\246\275\230\273\232<\307B\213;O$\327<*\261\366<N^\275=\222\311\222==\n\371<\262\337\274=\r\332\243\275\251^\260=\223\346\261=\033\250\214\275MG\001>\267\353o=\340\001B\274;\253\266\275^p\350=\354\237,=\316\205\243=\376VT\274\216R\217\275BO\356\274?_c\275\303~\\\275O\356\361\2740\033\244\275R\333\024>\027\244\340\274-u\364\274J\003\220=qu\331\273bg\305<K)~=\217\007Z\275c\2470\274G\334\355<jPU\275Z\266l\274z\2110>\216\355\n\276d\345?\275\314K\224=/\371\246;=/\232\275;\r9=dH\310\275\225{>=$\300&\276-\255&=\035(\315\273\315\036\037\276\353\315\213=I\371R=g\177\r\275\335\2132\275X\300\303\275\2620\020\276\006\350Y=O\262\345=\362\347\026>R\373k\275\024\203\n\275Q\342N\273\313\024\320\275P\213\013=\024\315T=Z\010\263<a\254S=\351\231\020=\357\253\255=h\271$\276\276\355\303\273\256\322\212\275\210\020G=\034\351\232\273\"}\214=\023\017\266=EZ*=\256\022\034\274\344\353r\274\016\000\253;\310\354D\275>\277\346\275\257\2123=\277\245v\275\373\317\231\275\352F\251\275\370\320\004\275z1\303=\204\337\300\274\367\277\344\275>0\203=\212:\264<+\303\031>\270\334X\274\322o\244=\253\004)\275@o\033>\305\330\241\274\361K\240\275\365\250J\275#C\037\274kQ7=\346B{=\267\021\251=\027\000\345\275\367\315\361\275\211\246u=\375\236\376<$\256\212=j\344o\275O]w\275\345\215i\275D\3103\274ks:=1\331\333<\023\036O\276\333\234\265\275)\353,=K\327\201=%P\331\275^\374\256=yq\n>\325\";>\223\001+=\371X\327\275#8h=/d\303\275Y\222\030>\311\335 <\311\r\344\275\'\344\214=k<\327<\037\334\254\272\301\322w=\305C\236\275\215k%<\332\364\265=\014\303\335=r\354\320=r\230\344\275{c7<\205:%\276\025\000\361\271\004\307\030;\204-~=\002GB=Mca\275Bk\233=\371\360\246<{\373\000\276T\245\325\275\010U\202=\334.\227\275Z\301\210;\377\002\023<\212\2371=O\017\367;!P\233<\222\302\023=\020\334\363\274\306\355\227\275\265\336\216=m\2142\276Ji\033<\205\023$\275\224H\226\275\005\035\355=e\347\254;zp2\2758l\325=\327\302\010\275\232\332k=>\357P<0\274\304=\247\005#\274\231\370\\=\237O\016=\276\221\265=\227\243\216<\3607\312<\246\203.<\250j\220\275Bd\341=\0006\302\274s\306\375\275\337u\014\276\031\003\035=\262\364/\275\222\320a=\243\316,\276\377\221m=\224>\257\274\332\013\216\275\334G\215\274\337\357\t\276\023Gn=\362\247r\275\333\220\217=\276\300?\275?\032\020>\377t!\276\0070\\<l\271\356\274\t%\250\275\312#\222<\343\340\244<E\266\027\275\223;^=\223\004K\274\225V\335\275K\036\250<\333*W=\216\374Y\274\' Z\275>\316\254\274\317\237r=\355\'L\275\242\260\025\276\221\225\227=gT3<\203\255\314=n\350\n\276\307\337\227\275\032#\t\275\003}\256=|Cy=\376\003\220=\272{q=\271\010\205\275\030>+=d(\251\275\3539\255=\'\000\342\275a\333\025=\332#\032=\207\345\256\275\205\2611\275R]4\275\330\242A=K\213 >\220\342 =\347Z\302\275\353\306\327<]\312\340\275y\214\262\275Ey\224=J\026\032\276W\273\230\275\2616\334\275d\026\321<\325\235\312=\307nX=6\310\372=y\220\321\273\n\273e\275!\232\273=\001\326\357=\204\204Y=f\022d\275V\205\203=%\306\277\275\035\316\306\275\213g\350\274\2751\034\275Y\200\327\274\007j\330=\274I\031\276\362.\242=\371\267\332\275q\r\000\276,\313Z=6O\235<(jn=o9\221=\202\315\206=\025\022\352<\246\262\362=g\t\361<~\017\334\275D\022\365<\330\010\005\276\257\227\263\275\\\300\302<\244&\251=&\306\214\274\212\324\263\2753x\257<\261>:>M\325\216<\036U\310=s(\266\273\324|&>\034\013E=\244\215\327\275\245\225\232\275\347e\200\275wPi;\323\263\006\276\242<\363\275\313pV=y\270\026\275\233\363\031\276\273\216^<\375\237:\275\245\375\001=h\267\222\275\0348\270=%\267A\275rG\200\274\007\244\246\275Y\350\342\274\004\355\216;^\0063\275R\2641\275#`\354\275\256\210\204\275+r\301\275qp\030=\231b\326\275\344\317M\275-\004\340\275\222$\235\275\333\345[=\372\314[\275\247\337\223<f\262n<(\'\217=\300\201\241\274\322\027h\276vS\\\275ei\t\276;\302{\275\230[x\275\262m\004\276\365\312\033>\321\r%\275\353uj=W\357Y:HY\315\274+\206\240\275,\341@\275\376m\372=\215\326G=\\\"/\274\227\336H\275\014h\323<\342\305)=\262\217\341\274U\314\036=\2501\211=\202\310\242\2748\331\222=\254Q\313\275g,\224\274\371V\367<\225\022\351\2725S\214\274\030\267\243=&]\364=\370\210\214= \234]\275\233\230\032\276*\022g\275:\223\306\275\220\261\315\275\263\237\r<\342#\311<\031?\n\276DH\226\275\032Wp\275mmS\276W?1=\246k\232;9\363\211\275w\273\245\275\277d\000\276H=\270=`\344\023=\360\005\014\275A\316\277\274\372\0065\275\230G\234<;\334t<]\025\007=\323V\017=h\203n=\026jo\274qd\337\275DF\020>D\216\205\275\224T\261<\203)\213\275\267/(>\257-\235<\020\331\315\275N\376\202\274\036\'\302<L\307\245=\346\266c=\355Eh<\004\"\264\275\241?\032=!E\315\275\n\263\253\275;Y\003\275\363\246n=w\263\001>\177\221f\272\233\202\023=M\271,<\206\001l\275P\356\222\274e\364\022>\340y]\275n\004\267\274f\250\367\275\350\305A=Ff\320=\223\256\206\275\\\007w;\261h\013\276\204\203\034=\207\000\'=\305\007l\276]\024\337=\ro\004>\227%\n\275\222Cq<8\202]>\027e9\276h1\357\274\364\304\014=\320]\003\274\243\025\317=\237\232\'=\274\352\022>\363\301^=\367\351:9\256Rd\275\274\245E\273\262\226\020>,T\034=\331\276N=\316(\207\275\014f\234\275\027\206\234\274\345\3342\275\027=\364\275\240\001\334\273K\212\377\273\313\017\331:\027\016\316\275bBo=\350\003\367\274\267?\202<@a\244\275\315\021?\276f\037\244\274\320\260D<\017\341\272=\273\236\276\274^\233\300\275\275$Y\274\326\r\030\275\253\230\241=Z\222<=\275\007\022\276/|\362=\004[+=\324\200\033>Q\2666=(\211\345=\366\252\003\276I|]:\271\227\237=5:z\275\310\277c\2751\232\327<\372\004M\275\027\377\365\274\343%\260=F\207\352\275Q\340\205\275\032\300\371\274\227\273\344<\246\272c=W\222\241\275y0\305\274\222\254\243\275$\253\210\274\254\274\312\274\253\373\n\276\274\342r:\177b/<u\335\344<\207\240M=C\255\232<\275\246\300\275\245\224\267=\374\031\t\276\356P4\275&\301X=\311UX\273\212\262\237=\265\320\334= \342E=\243]\264;$w\302<ag\024\274c6)\275_4\225=c1\314\274Wx\361=\257\016\247\275\177v\351=`\3059=y\262\006\276\317g\224=\2571\307<M\3666=l\277\201\275\277\262\252\275\366\004\341\275\273\304\177<\250\204\356:\331\305j\275\001\004\026\274\177\024\255=\217\351\031\276\331\010Z:4UZ=\363\370\206\275w\360p\275l8\023>Q\254\221=\"&\312=\033\253r=H\t\305=\357\237\211\275\366\300\244\274q\221\224<^\362\261\275\030\246p=\232\310\006=\236\363\361\273\212\275\265<\330\346?=\244\254\013\275\375\231\001\276X\342_\275o\321\203\275\215\026\031>\000\010\000>\234\260,\275\2670\'\276m\334\303\275EeZ\275a\217A>~v\270;y\330\234>p\007\321<\005A\333=V\004\314=\245\312;\275]\006\353\274\247\254\366\275\273j\220\275<@\210<\207<\303=\263\377\312\275\315\216\203\274L\273\004\276}\374\'=~`\355=\316\267\253\275N\275\260\275T\006\231\275M\027\273\274q\327\306=&\000\345\274\000@\307=\260JF>xc,\273\027\372r\275\003\026\232<W\206\201<H\016e<\202*\304\275N-\253=\322\241\307<\321/\227\275U\3274=i\245\222=\230\217\001=\324\243\321\274\350\336n\275(\310\361=\030\201\303\275\330-\222\2743\272\271\275M\006\n\276x\276\334=\264\370\222\274\235\376\362=\026B[=\3536\260<\200P%\272\327\313\241\274\031\350H\275<U\376\274\027m\320\275\336\363\336<\3077\202\274\031\3045\275m;{;\023\2204=\341\215R<\207lM=\211\232\274\275\302\331\317\2759\202e=w\223\217=\255\204I=]\377\177\275z\240\322\274d\317\r\274\337(p=\010\031\224\275\035\277\360<-\nA\2755\321\002\276\276`\232\274\361\243+\276\361z3=\222\351\314\274~Y\235\274G\357k\275\320K\266\274\005\000\201=\302\212\252:]k\230=~\203K\2762N\220\274O\223\021=A$\323\275}\277b\274\277\036\326\273^\203B=r\370\361=\314\201\016\275\374\322\270\274\274|?\276\375\335\r\275\036,]=\210\317\314;\345\231!\275R0O=G\217\006\275]r\267\273\342\255\003\274\"\244\330:Q\233\205\275!\370\016\275\000g\225\275\247\221\357:\177g\232\275^\343&>I\206\203;\352;\331=\361\3744\275\372\332\276\274\270U\222<\360t\013=S@\371\275\264\035\347\275\271@\371\273\351\307\311\275\234\237\302;\217S]\275g\221g=/\255\003\274\373\270\276\275\254u\233=\302\301r\274N\020\223\275\234M\324;:/\237\274z\270\242<\300\231\236\275A\336n<\363\230,\276\301\005\251=\363\333\245=R\2556\276}\210\231\2750#\021>\023\245[\276\034\200f=\274\346\t\276e3\244<xrQ\275\2148h\275\253v\003=\374\000S=\277\0316\275\221\240~\275Dx\337\273\200%3=\365\267\325\275\331\241\025\276\206\"\222\274m\207\022\276\364\317\223=\272\007\324\275{2^=\325\3721<3y;=,\206\372\274\376\2715\276-\020\n=\214\003\367\274<&\001<n\035\005\275Gmu=\315\213\177\275k`\257\275n~\005<\031\013\306\275}\317\345\274*N\232=\201\001\027\275\370JA<s\363\036\274\334\326\246=\010U\305\274[-\256:\217\010\205\274|Q\024\276\t\246\254;p\033\252\274\031\230P\273\250y\022\275\177:4>?Z\240=\"B\237<\255\314\216=YB\331\274\020\325\305\275J\307\002\276\222\216\027\275\336\n\232=\006\233\027\275;4\230\275`\3628=\344\004j\275\302\250\026\275\250\014(<\034\032\021\2756@.;\006\3117=\023+\204\275\032c\346=\272\352\033=\372\267\277=@~\006<\211\361\036\273\264KB\275\275;?\276\223\370\222\274\023\0262=p\364q<\222.o<5 6\276tP\301\275\252\277\235=\024d\032\275\035/,=\311\303\334\275&h\216\275\246\3249=\377\342\254=\353\257\311\274H\254?=9\216\266\275\212m\354=i\224\t\276\244I\221\275\311\317\262=\'\016\241\2758x}\275F\342\241=\320k\236=\016<\317=\337\216\261=6\357\351=\n\037P\275-u(\274\335\252\320\275\324\211\342=\331\310\273\274]\370\334\274\367\222I\275\251<r<\366`\233<\177\313\303=\237\231\232=\020\301\335=ya<=\376\226\216\275{\345\307=|d*\276\354\361u\274\006\333\031\274;<\215=\210\007\026>\326Q\260=m\317\314=\325\310\031=\262\025G\274\3055U=\372E\201=Y\266\235=C\372\243=k\002\340\275\215\376\340<J\322\201=?8\021=_r~\275\372\272i=\177K\003\275\324B\303\275\371h\257\272\251\322\204<\250\277\312\274\2359\n\275\310\364<>P+\026\275\222\324!\275]x\003\276\373E\361\275.Y=\275\341\250(=\003\353\262\274\021\304\301;\031\352\020>\303\372\177\275\340\236\364=\306\232\234=\032\3708\276&i\222\275\n\022\003\275\375e!\2764\315c\275\326\0359=.O\023\275\304\372\212\275\203\"\245=n\270\322\275\210f!\274O^\322=\343\302\222:\246S,\275\261m[\273@m\022\276\270\020\275<\315\000\002\275\036\2276>GD\203\275|\337\223\275}\314\254\275\374R\326\275\007\355\\=w\215\271\275S\301\205\274\365T\366\275\036\233,\274!\340\203\275^\0211\276\265\202\307\273k\357\222\275a9(\276p\312\204\274?$\021>s\005\030<\347\374~;\341I\022>{\345\342\274\005\267\242=I/\375=O\243\347<\230,\324\275\245\363\327=~\361\037\276\356MZ\275\017\2046;\234\035\257<\352\305~=\243S_\274s\363#\276#\237\000\274I\247K\275\352$\177;i]\033=\232g,>Fy\266=\203\340\231\275\032]p=\363M\264\275\177Pw\275\240=b\274I\314\006=\344\022\324<ei\275=V\254\202\275_\035\230<\312\'\250=\277\230\204<\016\275\236=\243`\006\275\207t\246\274\036L\231\275\273\314\003>\'\364m=\024\027o;l\213\035=4\225,\275b\206\360=z-\202=\351\2610\276\274w\024>\200\020\234=\023?\273\275->\207\275\037\367;\273O\266\003\275\364x\023=\331\341\333<\270\311\326\274,\312\301=?\361\336\275\3214\274=-Iw<\'`\320\275\201d\001\275\244A\271\274\210\324\240=\223\2672\273\006V\031>h\225\202\2758y\300=\301o\010\274\234\305\224\275\3421#<`7\345<\206\312\001\276\330\302[\275\215\0144\275;\337\000\276\343E\313\275\rO~\275n\344\355=F\267\353<\244g^\275\203J;:\247\n\201=\023\212 >\231\304\310<\373\363\202<\005\376)<\367:\361\274\254TY\274}\241*\274\'6\311=\376|/=1\225\211=\372\344\251<\272\031\347=\246u\340=)2\206=\356\373H\275\322a\031\275\360\037:\274\265\021v\273/\330\301\274,q\362\274P@\023\2753:\272=:\2645=I\310\221<?7C\275N\026\271=e\236\027\275\030\340\264=\210\032\201=^\266\260<v1\013\275\350Hb=\365N\375=\264\347\324\275u\374 <\203\332\271\274\202\234s\275\256\037\247\275\205Z/>e\304\327<\271O\007=\327c\025>fG\252<1\274t=\246\323\305\274\277\371\242=\232#\303=\221\203M=\314;\265=\rC\010<1\277\340\275hX\250=\023\236\\<\2306\032>\tQq=\217%\214<\235\205\306=\274\275\303=x\035\344\275\233\367\001=B\330\037\271\261\t\'\275\034!\013>\274?\212\275e`\311\275\001:\014\275\035\'\223<\271\250\240\273\326\346\300\274\234\350\216<~2;\275\301Ld=\213\261\306=\370\022=\275\265\313\023>\315\261\260\274i\207\230=M9\304<P\250\024\276Z0\007\275\246u\t\275S\357\255\275\017\177\275\274\036\211\370\274\232\"\030>l\257D>OJ\031\275\002\372\322=\304\207t<R~\201=\302\277\217\275\314R\317=\344\210Y=J8\320\274x\031\226\274\2568\021=1\212r\274\377\242\030\275\334\300\366<;\364\033<[@\310\274\352\031\017=*C8\275\332P\240\274\266A\214\275\343\002\270;\030n\245\275\246\367\367=yHD\275\202b\312\273\2071\227\275\210\265:=\2222l\274B\373j=<n\235=\230{\314\273\0309/\275\347\006\033<*\365\301\274\225\025\332=\036\004\347<\037`/\275Uo\275\275pK\001\276\241\224\034=\273\273\207=\030\024\032=\026@\266=N.\343<-+\030<\342!\211\276 \250e=L\307\233\2757!|=\177\016\260\274\204\261\270\274\244\320\001\275\026\266\343=\313\252z=\3438\260\275LEH\275]\353t<,\374\223\274\214V\017=]G<<\343\272\215\274\363\024\037\275S\374P>\020)\304\275\240\2148>\033\311\240=N\377\234=\345\013\250\275\213\226z=\'\231H=\367\023\304=1.\241\275\265\264\220\274I\034\345\275\223h\232\2748\034\352;\214\352U\275\312\260o\275N\226\306=U\345\241;J\361\260\274\035\204|>\'\320\007\275H\276\224\274\333\237^<\303\225\365=\332\030\306=\262b*<\376\024\033\275\3627\311\275\344\003\013>\316[n;\253\212\253=\017\273\221<\205\027$>\360zc\274|\022\357<\313,\345=\330\032\272\275\010\317\260=\313\235\310\274h\020,=~\177\001>\n\255q\275o\2766<\375\351\002=\nz|\273\243\212\021=<\232\001;\256T\007<\320\240\355\275\350\001)\275!\352\333<\330\314|>\267e\207\275\260i\267\273\266\211\222\275\201\377D\275\003\270\334=-\005\263=\300\302\305\275\371z\210=\323\025\326=\3415\275<\320zu;\267\225\350=\252B\235<~\017D\275\tj\245\275\355\234\010>\322\007\273=i\035H\274\035\206:\276\260\352\206<\006\270j\272\223\031K\2759\260_=\"\031\211=\321p\225\274\352\032j<\350\230:\275\343\315\006>\341\265\034>5=\263=\036\202&<ww\033=\001\3536=\3331\217\275\2261\347<\361i!\276cA\034\2757\025\272=\226\002d\275\261k\021\275\327\311\201<@\341\255\275+\332\235=7\313\330=\235\036\312==\007\255=%\007\371=\345\226\355\275\216bR=\333\375\231\275\275\343D\276=#\226=\323\007@\275\\\234n=j\342\225=i~\005\275\364[\352<\310\232\014=\276\264\313=\320US=s\211\022\276\366\203\266=\313\034\263\275c\306U\275\026nq\275k\354.<\026\001\241\275\261wG\275\231\310\273\273d\017\341<\007\000\037>\251\0253>\256\266P\274\306X\330=Q&T=\231\265\024\275N\253\254<B\257\216=;yq=\230d\272=\030B\233<R\031\376\274\212\023\322=\003[\201=1\326\000>O\344\355\275\270Q\200;&\250\226<c\244\312=br\323=V\237\234\274\031b\325\275\253\335\301<5\373[=\212\"\003=E,\027\274h\016\017\275\236n\t\276\265\320m\273u\0353\273;\275T\275\374\022c=0\307\372\274\271\033\336=B\020\244\275\332{\010\275%\177\036\276\233\330\244\275\226^\302\274T:\023>\376\013\262<\251J\312=G\3516;5\302\376\275\325C\034>\347\301\362=\235=\032\2750U\214<\026\373\201=\333\226\245\275\353\357u\274\025\370\355<]\231\014\276P\244\234<R ==\210\367\035\276%\245b\275&\216\373\274\332\215-=^\034\215\275t\016\276=\332\343\222\274\304\237\302\275\037g\222\274\237\216G=\370!\014\276PB7\275\366\247\363<\345\360+\274\344c\376\274\376_\252\275HN*\275,s\247=jb\226\275\306Z\370\275Du\323;\342\003\202\275\0173\334=\037\255T\275\223\247`=\347\260Q\275h\024\200<\224\222\001\275`Ft=\326\3547\276\035\275\377\274\304)\203<\251\022+=\312w\217\274\377\027\004>u\343\373\274\213\261\274\275<\204\302\275c\321\202=\217+\372\275\203Y\321=[\247\243=\305e\311=\340\223V\275L\330?\275P\030\261=\016\033\351=/\002d=\225\334v<_\0035=\335\025\250\275\213\214\255=b\334\347<\305\230\037\275\316\234\002>D\022b\275D{\210=&-\035=d\370\016\276\033\265\323=\231\227>\275\023\365\230=\244\252\276=FI\336<\224\373\270=\355\"\242\275\311l\"\276\264F\376=\313\244\035=\230\207\243=\251\3461=\325\330\223\275~\034\216\275\023\262\224\274\337\347\261=\'B}:\311:\341\275\244\0204\276\013K6\2754e\254=\306D\027=\355w\212=W;\263\275o\274\206=\r\341l\275*y\260=4\t\330\2742&A\275q\316+\275\213\266X\275\201\243\372\274\234\017\320=\300##\2764\037`\273Ui?>\356\325\210\275&\331\333\272\330\032u\275\377\263\030\274i\300t\275 \214C\274\017R<\275\301\223\034=\2304*=\232W\260\2753i\272\275\3439\343\274\222\244\340<\341\345\214=\241\214g<\303\001\244=;\241^<\022eS\275\352B\231\275\031\263.\274\335&?\274\334\334<=~\230s\275\265t#\275\362|\235=hUG\275\231\037\250=\337_\213=\337U\r>LI-\275\200\373\027\276\010\273`=\306\021\225\275\277s\233=E\342\372\273\223<\226=\365\274\240\275@\261\237:\227J\035\275M:5\275\3026\213=g\220\"=S\364\016\275qb$>\024\346\002>\3063\026>\345\3554=\311g\355=\366\253\352<c(\217\273\346\320\333\274\227c\027\276:\336\211\275\316\343\t\276w\344d<S\272\256=3g\376=\312\327o\274\253kc=\\\017\205=yF%\274\232}\013\275Fu#\275}\330\014\274\26668\276\014\232\263\274\334\0043\274J\333\320<\246\t\032>\272`\317=\300\272\025\276\342\'\352=r\317\013>\236\204\006\275:\2744\275\006,\324=r\334\312\275\272N,=n\225\352=\364\'\007=\221\224\221\275NBE=\276v\213<z`*\276\231\314\000=\224\3209=\367\017c<T\244Y=\254>\024=\265\250\374\273\373\315\233<\257S\261\275\343!\265=\037u\240\275\334s\255<\313\0310\275!\204\367:\251I`\274\363D#=a\031(>\206\"\n=\373\330\220=J\337\333\275\007$\322\274\255\2449=\302\035\273\275\030\240/\275\275\332\316\275\215=E<\252\317\320=\273\345m\273\364u\212<*\017\343\275\375\027\020\275\356DV\276Z-\326\274*0\214=\3171 >\241@\271\275\335\212\017>)\306\207=:\243t\275C2:<\314\237\177=BD\237=\357\035s=\230Z\220=\3613\204=$A%\273\020Q\323=A\330\250\275\306aN=\240VE=e\'\000\276\212\310\263\274Y|\253\272\210\364\010\276\265\327\246=\331\030\377<v\303\365\273\256\nE=\361\010\232\275\213\311z\275|\260.\276M\252\244\275CI(\275\306<\201=\253x =b\273\225\275\002x:=\264\366\027<\247\302\023\276KH\252=\010~O\275\016p\007\276\"\352\224\275\376\321\367<5\317\'\276\243\323\202\275\351\026g\275\242\002!=\3220-\275\264\323\335\275(D\005\276\332\236\217<i7\005\275I\301\n\275iU=\275\276]\003\275w\226&=\264\370<=\355\332@\276i\347z\275\025\277\331\273\000\367\013\275\334\351p=\034\255\372<\235\216\273\274\013:\347\274\360;.=\367\202-\275\266\334\236\275\021\020\337\274\204\245u\275\217\221\372\272\026\253\t=\253M\342\275\274\350\352\275\255\274W=\030`\336\273L6\010=W\301.>\030Dr>U\274\306\275\307)x\275\3770\254=\350\305\224\275\233\276I\275\332e\260\274\344\264[\275\005>/=t\370\206=\3176\366\274\207\275L\275]>%\275 a\275\274P\376=\275\210\241\250<)O\014\276\245\005\002\276K\030\250\275\000`f>\370\356U=\373\210\274\275\305\360i\273lm\271\275\310\203\200\274z}\027\276\231\320R\274\277O\364\273\355\376\267<Y\274f=\017\355\267\275\244\216\265=q\004\221=\225-\227\275\025\370\277\274\254\334\310=gC\266\273anZ=T\016\025\274,@\377;\031\2266=\276LF\274\257A\235=-\321[=ff\251=\255\324\224=\210>\233\275\231\367F<\352\236P<\222\205]<-\3262=\234\205z</\341\277;\373jQ\275\025\255!>kZ\206\2735E\265\274\353\267\260=#X\226<*~o=Co\216\275\021\031\004\276?\301\326=u\270M=b\265E=/`\000\275\2662,\275\324\260\'>\351\326\342\275\023\332\021>\210\230?=?\336v=L\255\262=\211\207\246\275\230\227\202\275\336\354\261\272\356P\017\276\262\267\265<\223\031\243\275\364~\317<\221\215\205=\007\260\277\274\263\334Q\275y\253\307<\023z\342\275\320A\265<\235\322\234\274\030\273\006\275\003\005\361;7)\257<\347`\000\276\266^\230=\370\254\252\275\374\306)<#\031\240<]\331 >\251)\233=p5d=)\nf\275\236_\312=\001\037\277\275eT\037>\251B\236=+MO\275\236&\005\275B$\275=\350\351N=\\\251;=\3430\274;\220\355\327\275\020q\271\275\336\340%=\365R\010\275\350q\266\274\257\341\352=\376\3670=\231\343\262=Kp\240\274o\026\251\275\350Y\202\273\221\343\272\275\303\324\342<\',\313\275*\251\354=+y\250;4\241\272\275\206\3206>a\304\016\276\247P\216\275\000ad\275\265\321Q<\017\271p=*\372,=\037%\256\275\033\210\332\274Y+\327\274\333)\311=\323\216\322\274\021\347M\276/(\241\275\260\2134\275\375\246\370\274-\303\342=Sl\356\274/\236?\276\226=e\275\377\032\243\274\267\340M<j\2376=\003y\207\276qi\230\275\306\377\233<;E\327\274\203e\353\2742\327j\275\225\001\252\275}\n\273;\007\357x\274\315\234\201=o\251\317<\273\331\025\275\254\'\376\275\245\314\372=O\025H\275\\\200\266=f\207\010>M.\254\275\364|)=\345\200\212=\246\347\270=Q\264\334=\013\314I>|K\207\275\214\276u\275dM\241<\331\204\004>k\230F\275\271\311\372=1R\364:\251\031\336\275\343\323\224=\366\351\r\275\364\033\356\275\014\315\330=\"\345\207\275\201\315\257\275\202K\271\275g\200\276\274\010\320B;\007\3676<\263\202=\274\025-\332=#\3170\276\225\223,=\333\235\\=\2516\353=t\326h=\345!\357<\302\3258<!Z\017\275h\304\344\275\243\304\000\274\361n\262;\"\321\031<\000\266\257=`\251?\275\227\274\234\274\256M\235=a\244\344;\333\224\236;\007jj\275\033`\334\272\230\262W\274\2579\246<\365\313\224\275\202\372\306=\375\201Z=\303F\274=D\023\233<U79<\023G\007>\274Y\200=V\312\212\274k?\333\274E]\227=V\374\003=\245-\"=\224\237\210\275\206\234\242=\233\345\264\275z\n\202<#\n\201\275Q\313\211=<\311\022>\260mw\275\025=\020\274\205\250\t>\177\2065=\334\304h:M\302\313=mhj<.;\223=P\234\035=\2025W=\000U*=l_\000\275\262\356R\275\023\263\206=\226\366\215;[\010\327\272c\345\241\275~Q\342==\361\272=\020d\027\2768\327\337\275\014y\235\2733\016\362\275\022\320\360\275\2552\231\273\306\032\037\274[[\321\275\340\302`=\214\234\312=}\354-=\254\270u\275\0261Q=\215\332\243=\\\021v\274\265\204\376\274\337K\257=\335\001\010\275\237\343f=\266\361\013\276\263i\265\2752\257\321\274\217#v\275;Y\370<\306f\316\274\330Z\217\275\265\222\225=\313V\016\276\262cR<aj\004\276\247\333t=\234\234\370;\226\262\006=\024\002\220\275\332\205w\272\274\337\r<\205T\">\233\270\347<\231\276\375\274|8i<\304 \310\274\005S\003\275\267\177\201\275C\354\026=\"\266C=0\242\321\274\352\r\247=\256\275\020\276\202\274#<m\364\031\275+\005><(\036\312<\201\325}=l\007\231\275>\213\324=\220\033M\273cZ\227<\237\007D\276\323\362\226\275\275\336\243=\210\366Q\275\214\tA<b&\210\275o\004\311\275\257\354\273\275\241\234\224\275\262\226\266\274]\023\317=\343\177\227=\001\225G\275\327\031 \276\363!H\275\336\035\230=p\230\211\274\204Wc<\270T\251=N\027\361=9\001\265\275\344g\245\275v\252\267\275d\312,>z\341S=\343jw\274\323\246\026=\026\303Z\275\001\247j\275m\314\240\275\203\2764\276\213\255_;\277\251\267\275}\010!\276\360ns\275\265L\325=n\257\032>x\262\016=\360nM\275\0038\"\2756\207\303\275\017\376c=FD\241\2751\270\236\274r\332&\275w\373\217=3b\240=\031 \212=\227\252)=\355\213>=\000v\214\275*\365\246=\335\342\217=\372[t\274y\224[>x3\303<1e\016=c%\260=w\201\304=\004\367\236\275\035\264\363\275P\357\202=\037\203\270\273\306\211\220\275\232m\024=k[\367\273p\322>\276\026W\334\275\231?\254\275Y\365M=\262\022\017>\246\254\223=\026\272\210\274W-\236=S,\356\274\010\025\267\274\334\222\360=1%\305=o\177\272\275=\217\020=\016\204\247\275\231\'\201\275\335\204\203\275\237o\362\275\227\256x\273#\373i\275\333\201F<\316z\3459P(\364\273to-\276r\017\216\274\215e\203=\264|\216\275\372\321\353\274\376\017W<\005T\205\275\230p\346=\3044\257=\227`\235\275\035&\211;\217B\n\274E\322@\275\356\333\002\275\372\034\372\274.Ez=\320\212\306=&\320\303\275q\211\357=\332\006\\\275\243\317V\274\230C\026\273\365\230\203\275\347S\320<\320\230v=\225\320\365=\3667\255<\301\343!=\357t\325\275P\261T\274I\014\212\275\254z\222:\241\371*\274m\262S=\241 \021\275\263=\276=\264$p\275\033\251\313<\377zn:\"\250)\276\257\245\304\272\207\356)=h\005\275==\315O\274S\024\200=\217MJ<\364X\223\275\327\210&\275Y\277\307<\261j\271\275Buj=\364X\353=\201]2\276X\210\273\274\241)\215\274*Q\207=\235\336Z=\t\024Q=\252KB=0\271\376\275\341X?\274\303\027Q\2766\033P=\306\267\272\275\271\366@=8ei=\034\301\250;\014<\037\275\317>\210<\256%;=U:\254\275#\375\261=\341\342\021\276\223 \314=\266\235\003\275Q1\'\275*\341\364<\376B\345\275\200\301O\275\252\260\027>\323\215\302<h\266\265\275Q*\253\275\274\342\331=\306/-=G\221\271=\322\277\031;M)\256<V\200\014>\377B\200=\217\266C<\250\264K\275r\315\233\275\301\026\252=\001\230\313\275\016\027K=\314F!\275R\316\t=\026\032\313\274\210\354\"\275\230\034\016;?6\362\275\007\336>=\326\341\243\274\316\177\201=\254\217\341=\347\211\013>%j0=\335l}\274_\337V\275^\020\230\272\n\251\360=\317\325\020\276\311\232\267\273\231\361\366=\214\211\'\275V\265;\275\335s\314=\315\317_\275\351\245\021\276\350\223\273\275\\sb<\256\227\233\275\327\373\331=7\376\260\275T\301\240\275\023\353\355<B\363\324=\325\275.\276\312X\025\2762\3473\275\234~\306\275V\223\006=a\206\n\276\313\025\223=\342!o;\300K\273\275J\364-\27407\002>\234\224~=i\303.>\021\2660= *\332\274uP \276\236\035\003=\366\035\211\275\267wG\275\335pS=,\264&=\275\324a\276\237!K=4\375\r>rh0=\221)\213=\307\204\232\274\365\205\201\274\231\364\"=\037.\t\276\3631\023<1\271C=\207R;\275R\303H\275\214\362\334=\013\014>\276\333cM>0\354\"\276\310\300\214=p\214\272\275\360\330\214\275r\340\260\275\270?\232\275\"U(=eI\355\274\346\332c=j1\026>\037\033\227=;l\024\2734+[=o\212\036\275jwN=\3232F\275}\261\016=\301\330\3149\340\271\201=\375n\344=\373\023\014\276\366j\311\273\227C\013=6l\320\275\325\345\002=U\331v=R\325U=\224\373,\276\036)A=\236%\241=+OY\274\350\311\204=\330HL>\371\371\225=\305+\321=\246\253\005>V\221\220<[\032\200\275n\222\211=\260\nV\275\363\003\025\274\363\261\275;\234o\312<\3413\222=\251g\337=\376\354F\274\034\346\262\274\225\300\202=\231\211==\232\010t=\"\314\211\275e\233\016\276\0225\232<\234\327\272\275F\201\226\275\303y\275=g\365*\275\371K\304\273\016\013\202\273\226\007\200\275}\026\262\275\234]N=\013\242\230\275N\016\234\274\2634\231=\252\217\006=[\356\r=OJ\312\275>\321\207<Kb\035=qZy;\303\222X\275\271\203\004>l\352.=\005\032\202\274K\354\321=o\237\025=\220\177$=z*\210<\342eg=NP\016\275\300\342A\276\253\251\t>%Z:\275]5\n=\037\354S\2740\231\222<x\236\205\275G0\221=%\346+=\275j\355\274\233Y\266\272\007\035\004\275G\2371=\357]#<\r\360\244\275\376\257\n=\371\214\250=+\000(\276\360\236\207=\261\023\236=+K\367=\344s\242\274\025\236\245\275\354\234q\274\034T0>f^\224\2757[d=\321\256X=V\243k\274\0245\276\275[\253g\275S\217!=[,\236\275\262D\251\275\013A\276\274\240[t=\375!\257=\307Z\270<\274\353\256;\214\277\345<\224\227\261=\005\'\356=\324\262\227\273G\312O9\230$\024\276\356\370\377<15\272\273O\351\337\273\035\323\301<\244\375\311\274$\020\211<Z\307\360\275\265a \274\272\305\277\275M}\336=B\237U>r\212\334\275u\347G\275\231\323<>\241\246\312\274\001\206\014=\013\210\320<\371\242\"\276\320\t}<\320\276?=\242\256\365<\317w\000\275\352\217\353\275\332:{\275\367\360\220\273G\335G\275`Y2\276R$@=\214\2216\275Q{I\275\270\213U\275M\375$\274\364\323\232=\212H\243\275\214i)=zB\024;a\211\253=\0357\215=\304\253\376=\0176\017\275\221\307\264\275\362\360\263=\256\316\'<\343M\246=\271b\364\274>\211\341=\341\033\212\275\360G\263=\372\213W\275\276\307\265<B\337\231\275\361\325\367\274\303\223\211<.\200P<\225\215\362\275lth<H\342\323\275\203\001\006\276p_7=qa3\276\316\232\017<\221w\"\276b\375\300\275d\264\205\275\330P\246<v\250U<\273<\026\274#\222\325\275\026\345!=\311\033 \275\262)\n>\305\210^=f@$=\026\271n\275\006S\030>\235*\231=\360\217D=\265\373\005<\356!\375=y\365#\276\327`M>\000\357d<\205\010\275\275\324<\375=h\260\272=$\204 >\253\275-\275\326\006\006=\314H\232\274zJ\325= \227\356\274\200W\260=WI\361<\027t\231<\233\017\306=\235[.\275\217\373\230=\346\267:<\r=O=\310g\253\274\356\322Z\275\336x\337\274y\307\200=\017Z\010\274\260\003\357=/\247t\275\265\307\220\274\226>8>%\363\2159v\231\327\275\217\377\377\275\366\007\200<?f\026<\317W&=4s\003\276\001\315\236<0\375\316\274.\263\324\275\354\322\320\274\217*,\275>n\332\275\350\257\213<f\277\342\275FU#\275v\035\206\275d\000{<\241\035\223=\000\267\311<\200\363\320<\231p\246\275\311c\215\275\213Q\222\275\214\022\304<\256\r\253\275\365gs\274\345\005\367\273\374\027\326=z\261\003\276F*\241\273\267\220`= \035\204=Y\023U=\033\013\021=\310.\034\2768\n\036\276QhW\2756\210%=\364\021\377=#q\323=t\302\n\275u\350\234\275G^\302<3\265\253<\"\211\031<\202\365\022\275\347i\037=\360\226=<\230\3453>\\\nE\274\241\270\354=\357\311\003<u\374\203=\013\006\006>#\263\255\275l62\276%Ra\2750\263H\275<\335\007\275\277`\031\275\013\210\014\275\235\333\251=hu\253\275\234\013\014\275\342\033\332\273\206Z\027=\261\334Y\274\322\022 >\356\032\312\275V\220j\275\323v\010\274\276XO\275Dh\321\275<\035\356;\313\343\366\274\330\200\366<\036\337{=G\2173\274%\222[>\001\034i\275\021>\202\275\021\212\347\275\027\010\325=#\016\262;\362G\271=\230\351j\275\354\211\004\276\033\232\320\275\335\020\256=\350O\233\275\274\272\020\276\305U\007\272V1\033\276\273\253t\274w\031\266=\371\320`\274\236\345J=\251\323\013\276@&,\275\230k\307<&m,\275\342\013\032=\233%g<+<\315\274\'F\334\275\345\270\225=\366\240#\275m\204\302\275\371%n=\251\321a\274\373\034k=\014\026\266\275=\356\351\274K\222f=\202\037\246={\224?\273\364\347a\275\023U@\275\272\014x>\177\024\026>j\221\204\275\331I-=\221\213U=o\341\037\276Su$8\2766.\275X!\203=b\026\'\275\017/\250\275\321\321\026=\345K\'\274\337\243\211=\332 \232\275\256@\265\274p\023\232=Q*\006\275\226F\004>so\242\275\031\271V<h\006\003\275\200Q\255=\226\344\232=\020\214\221\274\276\327\n>\027\311\277\275\036\267\r\274\246\232\342\275\2501::G\231N<\220\240\240<\333zt\275\026\366\230<K\342\340=\330\314\033=\223\025\202\275\3461\276\275\335(\363<\221\224D\275vE\372\274\345\021\211\275\230\326[\275\270d\331\275n\023\023<\027\365\267\275\275\276m\275_<\265=\2329\267\274\331I\240=\245T;\275\255\260\353=*F\216<\010\262\244\275\306\017t<\260\261\223=$T\244\275\205\326\300=\276\375$\276T\036\323\275\3031\343<Q\254<<17S>J\034\213<S)a=\203P\345\273G\245\032>\030l\304\275s\203F\275\270\366\306\275\313\275\006\275\276\232\340\275\201P\305\274\357\364<=\307\271\331\275\356\003\024\276tg\n\275\266\001!\276\017\255\226;\026T\314=\025\206\365=k\030\020\275\325\242m\275\323/\260<\233\212\367=\264%\301;nH\215\275\253\241\321=\001\017==\224jc;\350\276\243=\307k\216=U\252\221=\215\247\\\274HX\207=\014#\006=\326\201\376<$\272.=W\241\200=|\352\217<fc\324\275\320\233 <]F\257\274x\035\357=\364\330\211<\r \204\275Mx\214\273\343t\340\273yb\313<9\236\247\273\226\372->\332\306\020>\264\317j;\241i^=\316\202\203\275\r\324\224=\350\2445=3\266\260\274\312\273\240=m\0334\276\233i\300={_\251=Pv\376\274gG\220;\337\016\027\275\024\262\275=\254\030\235\2759\250H=a\342J=\026k\321\2759\211\305\274\354\022@\275\277\322\363\275\016\364\311<\205+\270\275\267fP<\264\3741\275\020\233\000>\201 U=z\031\205=\370\003\302<s\216\325\275 7B=\305E\024\276\370)\271=^\016\220\274\303\242\215\273\316\355!>\325\244v\274X\0212;b\217\035\274\354\372\025\276\360,\271<\211\367>:@\204\000\275\372i\014>\200\311\371;\252au=1\250\\=\207=\203=\030v/\276:R\231\275\257\324\361\274\373\340\347:\332\005\310=\004\021$=\207\235<>}|\237\275/~\014\276\353\357\323\274`\227j\275_x\245</\024\357=} v=\3019\352=3\370\354\275W\245\002\275\322\372\321\275\243\200\314<\220?\005\276 b\350:\262\016\251\275\247\2347\275)\004\014=v\372\215\275\021F\032>s\270\211\275\001\004Q<\325\367\346=Q\344\253\275\227\312X\275\236Wo=!\235\002>\276\007\222=Lw\231\274&L\275\275mj%>\350\251\242;\235\340\000>\331\002\262\273\270\007\235\275a\006\326=\331?\201=\316\335\273=T\301z=\253\200#\275\326\013~=\223\274@<\371\355\020\275\2134\257\275\335L\370\275u&F<\241\325\016<w\005\211\275\362;L;\016\202j\275\224\354\343<\314\313\034\276\017\210\237\275\2250\006\275\202G\210=\010\331\346\272\003\335\304\273 e\303<\003\260$=\013)\325=k\n\010\276\030B$\272o\013\321\275|\017\250=&\231\305<\327_)=\255\224\214=\364\273\307=\350\373,\275P#9=\315\257\211\275\017C\231\275\35681=\274Wq=+x\340<\244\316\200=z#!=\372\236\037=\177\204\t>E\021\020>t=\334=\236G\275=\356\376Q\273>\342a=\324!\330;\217\351\347\275\016\014\233\275\013\247V\276\002c\202=\035}\264\274`O\022=w!\360\274\3551\003\276H\322\006\275+\374\315\274\304T\217=\231\247\253\275\206\007\226\275\232u{\275o\014\341;K\263\025\274\303\356\276\275t\216*>\301\t~\274\373\2330=-\374\313<\235\n-\275d\237\222=\2438#<h\274\221>\372!P=\342\373\355=\267\233y\274\003\203=\276-l&\275\256\214\337\275\210A \275?\272\201\274\233\000\223\275\005^9\275\006\214\211=:\250>\275{H\364\274\342\376E\275\241\372\336={\367u\275QJ\026>\344\310-=BP\370;\263\2008>\03795=\"\322\257\274\252a\036\273o\253;\2769\034$\275\221\314\020>h<o</\330\243=@\270\001\276\207\326\002=KO\273=\010\346\224;\240\266h=\232\032~\274d\237\033>\324\250\200=m\004\265\275\245\033\271\275q.]\275W\370\356\273y\364\035\276\006\377\261\275S\261\216\275_\221}=y3\331<\313\265%\275xx\317=A\025\271<\364\215w\274\215\242\200\2759\350\275\275\204\202\305=p\246\256=A\330\365<\227\353\305\270\377\344D=\254\212\210=\022&\007\276\337\235\271\275a\220U=b\354\332\275\367\217\316=\305*}=\004\025\001\276\230;\250<\211\026\341\275\355d\204\274\215e\232\275%\243\016\275\362\005\236=\024\264X=\\\353\230\275\363/c>Sf4=\367_\352<+j\322\274]\237\241<\027\260\030=\224\"\211=\347\276\223\275}L\337<\234\227b\275\377.\n\276T\266\026\274\223\010:\275\202-%=G|\261\275(\330\330\275\363\022p=\224\t\352<g;~=\324\302\260<,\230(=\014\304F\275\203\020X\272%\373\375\275\256\365\266=\017*\021=\340\342&\275,\303W\275=3y\275\313\237\372\275\216<\202=+\350\000\275\367g\315\275\025M\026=;U\263\275\326mG\2747\357\301\275\213ZG>\364\031\210\274\013\001\245=\262\2072\274,X\"\274-\234\206<\024\333\230\275\255o\332<\363M\374=\022\304\252\274q<*=%\222(=\024\215\373\274\020\326q\275\271;\253\273\361\020\251\275\376/W\273\312\2401<\363\366\312=kB\232\275\205q\252=K*x\275\264\004\202\2744\266i=6\357\021=\213\243\216=\353\031\222=\203w\371\272d\225\204\27409\337={xH\275FS\311=\314\365\026<\346\020\325=g\324\025\275\250w\364;5\234\351=\363\234\027\276\305\334F\274a\302\222=\230\344p<?b\037\275\352\210\271\275\231Zv=\254n\t=BF\233<\022\342\267=\rC\014>4\244\237\275%P\226<(\2348<\006\004\026>\r\215\361<7Y\340\275\335u\004<\350X\\<\357\245\311<A\267\224\275\325\032\022>#>\232\275\177\r\010\275\223G/=\234#6\276\314\017\320=2\354\232<\245\376\021<09\370<D\341a=kMq>P\377\025>Uaw=z\3319=f+\272\275\374\2069\275\377\244\211\275\343I4>,$\230;\365\206\377=\036o\244=\312X*=\371\376R<(\023\215\274)\215\377=P\200\300\273\353\330Q\275f\351\317\275\272\334\203<\n\212\245\274\r\324\230\275JZ\204:.y\037>l\313\261\275\010\023\014=\013\373F=h\367g<\251\241\376\275\035f\016>\244\2671=o\205\021\276j>@\274Rqk=\232\361n=uMe=\313\275(=5q\006\275\2660C<\302\244\223=\370\242*\274\377\021x=dC\205=\271u\225=O\210\265\274W\317>=%j\320\275+,G\274\336\270\366\275\330\235\365<\003\362\376:H\313\345=\342\252\311;\314V\251=\021\224\275\274\006k\004\276\234*\377\275\307\177\030\276\030\251\313;\316\027\231\274\207\325\367\275\204\320\335\275\025\334K\275\366\226\330=\261\234\037\276n\245\252\275JI\205\275\177\020\004\276;d\332\274G\225Z\275\211\243\316=\353\025K=\211y\317=\302\007\374\272I\321\254\274~\337\000\276]\177\313<W\320\325\274!\315o\275\234\340\214;d\3173\275\341\007\245\275\264\267-\275|1\021\275@\243\232\275\027j\256=\256\2200\276\024\226\017<P)\246=\r~O=\260a_\275+\320\246\275L\013\334\275!\344\277\274W6f\275)\354\214;\205\354\226\274\321 \366\274%$\204<\226\324\277<\005@:<}\325`=\243>\n\275g\033\033<S\276\277=\337\261\321\275&\347\220<\031\257\243\275sk\322<\223\374\277=\3616-\275\276\223\242=\216W\036=Y\013\016\275\336\375\202\275Vn\254\275\373,M>/\001\242\274\221!\314;N\301==v\267-=\276a\373\275\330\n\242\275l\023\315\274\237\357\347<5\366\231<\250\211-\275\217\220_=g\202\345\273\206\354\034\275\0019\003=\346\217!\276\206\025\360\273\314\t\253\2750\346\355\274\201\031\016\276\307\265\377\275\360+\253\275\336\2700=\3023\007=i\014\237<\375\014\027\276\362L\305;[\235\204<\017\301\022\276\375\013\321<G!\201<\346\205\300=.P\357\274*\325\222\275\200Lm=\234\036^<Fo:\276^v\275=\272\312\205=\007;~\275e\342\t>\207zy=8U\003>\236m\276\275\236\255\233=\333.\352\2745\351\021=N\261\364\274\237\242\321\274\265\3013\275\277\200\001>\017\202y<\374(7\272M\013j\2759\342\177\275?2T=j{q=\260l\225<\360:\265=\231<\200=6\352^\272pq\355\275\212e\310=z\327\r\273V\3309\274\340\246\234\273\372\3650=\365\306\275<\352\364\355=\007\236\207=\021\365\220=\236\223\251\275\226\317h\275\306\337\260=6+0>%\362\306=\014`\356\275m\\\210\275LS\002=z\322)\275\271\237\210=^\263\364\273\020\242\026\275\277\275\336\275\231U\236<ND\363\275=\204D\274\204c*=\310Q>\275\025\355\344=\353\360\253=\2048\223\273\273#|\274\202\203\224\275@\022!=^\274e\275\233\255`<\302\023\022>\033-\306\275\252_N\275\275\334\245<t\255\330=\035\353\335\274?T%\275_\331\017=\216\"\264\275h\345\017\276\03597=\007\203\036>\317\331\010=\315A\367\273`Bk\275\333\372\265\275\013g\242\274\301\210\270=\371e\256\275\007\336\205\274Q\266\267\273\264\216=\275?\370\244\275\3449\276\275{7\304\274\371\320\203=\014\256W\274\3717\006\276\222C\302\275\351\252\265<&A\361\275{\326o\273\325\351?\276\204 \235\275\275\300\343=\221\252\233<\351U\364<v\260\022>[\037\214=\004\361k=\336\263\031\276\302J\035\276U\005\003>\311\235\266=\374\351)=\330{%<\212\347\036\275Dz\200\274\274\020\026\276\242\036\025=7\275>=4nC=Kj\215\275\256\005\003\276\237\361\321=is\006=<\236\237\274\020\305n\276Gj\243=+\'\036<p2\000\275&\016\n<\037\202\217={\375\360\275\004\210\220\275UN/=\260\2474\275Fq\221\275\213\267v\272\024\256~\275\361\203\003\276\031lX\275\210g\221<.\241$=\270\033&>\276\254\020\276G\0174\273\357\006\233\274\343\233\1779\177\371(\275a\253I=\314\235\252<Kx\306=b\272K<x\337|=\272,\356\274\377_%=\246\276\241\275\016\301A=\301\r@\276\351\360\001;v\312\314=\250?\260=\343>,\276\213\335\013;m\370\371:\344\376N<\345\027\004\275\366f\003\276\242\237\026=\312\301\362<\303E\257\273\"y7\275\275d\274=\237\334\211\275h\306t\275i\352\033=\324w\205=\021\206\310\266\354\232\272=6b};\374cr\275\022\2351\276\371\200\220=z\312\312\272\3326\025\276_\033\235\275\357\232\005\275\031F\n<,j\014>\331\205a=\345\344\373;g~\\\274\276.\225\275\333\260\"\276++\205<!\313~\275E\023\247<\220F\371\275#\275\032\2763\225\337<\373b\260\275\374\033%\275\260\330\244\275\270\3039\275\217:\355\275nf+=\'\324\243\274\306\200\357<\001]\026\275\251XN<\326\243\253\275x\027\340=\331+*\276\332\013$=\212\321\002=\'o\322\275;\351\350<\\J\314=\373Lv;\007\361\264=Z\230\300<h2\234\274\375\356\203\275\240\to\275\001\315\262=\030 \275\274\267M\263\273\267\276\351=\010\305\252=\330\215\236\275t2\324=^\020\261\275\235\204\016=h\217\334={q=\2743\230\263\275\237t\254=\302X\004>\303\341\237=\336:7=!{y=R\337\343\274\373 \210=\301\037\000\275u2\230=\030\223\332=\n:\022=\224\273\326\275\n\225\316\275\236\276\231\275\313n2=#\271\254<\235\2634;\253$\206=\353\321\230\275GT>=\210\"\204=p\004\017\2759\265\t<\251xA\275\034D\240\275\337\333\244\275\271\031~\274,x\024\275|\2348=\025\326\200\275v\3533\274(\333!<\3730\321=\227\326\211\275n\255\016=\177\026#=N\241\335=$\225\355\275\334\374\305=+\354,=\031g\331=\013\324\271\275\316\367\033>\206\306&<\270o\240\274\351y\362=U\204|;!\036\354\274\252$s<R\'\207<\251o^=V\355\023\276\317\315k\274C\202\325\275\222c\033\276[\375\257=5j\006\276xd\210=\n@\t\276\037\226[\274\305\373F>=\271\022\276\010f\010\274\035\200\330\275\307\323\227<b\271`=j\036\242=\256#}=\324|\220;t\031Q\275k\374\025<\210\032?=\237\272\003\276s\221\017\275\3340\r=a\007P\276\\\300>\275(\252\253\274\016\272\036=\251\243\022=\360A\272=\324\214\271\275\034\230\261;\004\223\351\275%\217P=\313Q\210;=\022\230=\036\201\260\274\316\322\272\275\245\007?\275b\036\232;\010\300\021=}\233\334<|w\036<8\032\344=&\300\035\276y\207V\275\245o\242=\021n\324=Ld\222<\001y\211=J\324\264=!\213\312<\226,\000<$$J<\270!\203=~#\177<n\216W>\360\032\242\275\2702\316\274\203\274\240=c\306\013<\037c^=2\231e=(\324\304\272\345~\215\274\277\257\373<n\355\216\275\304h<9\004pQ\276\341\305j\274\344\357j\275o\014\032=\317\224y\276\300\362\311\275\246\035\234=>\276\324\274\373\242\223\275\373#\346\275\351\360X\275\355]\350\274\036w\233\275\202\036\215<\200$\223\274\211\373=\275\202S\004\276T\243\020>\315\234\010\275\327\321\225=\267#\022\276 q\276\275\027\364\335=\341\261.\276[\031\345\275H\220\275<1\241\257=\362o\024\275\315\216x\275\217G1\2759\034\205\274\350\215\377=@u\362\273/\365\304\274\327\033\221\274\002\256\030=\'\305\260\275\247\032\325<<ZQ=\\\341E\2746  =\222h\235\275S\227\024\276\303j\213\275\365`\261\275\236Y\343=4\263\212\274#U\307=\240\304\234=\332\230\237=\263\003U\275gi\021\275\"&\274=\013v\255\275ac\353=n}[\275`jk\275\020\260\244\274\216\3177=\037\3732\276~\254\376\274N\024\302=\203~\204<\204\371\007\276E+\220=\201t\026>\322\376\206=D\215B\275\246\037\252\2753\352\027\275\213\312\037\274\346\341\216=\226\226\010>W-\254=\r8)<\246\322\272\274\274\233!=<\326k<\t\245\241<F\036-=\022&\244\275\267\3152=I\335\020\274\365w\332\275X|\362\274\366&\003\276\365-4=\3013\337<\352 \236\275h\376|\275`\372\213\275t\266\252\275\235q\337=\202\253\002=\024\373\337=\210\356\037=\305\r\224\275y9]\2741~\275\274\000T?\275\301?H\275\375\322\031>\273(j\275\361\250\350=\234\007\305<Si\030=\360\360\234=\005\212\316=!\331\035\2765\016e=\373\225\252=\t\027\311\275\255\260\326<\001\241_\275\007\245\215\275\022yy\275>w\037\275B\005-\275\274<\211\275=a.\275\360\224\362=!\312\271\274N\270\332=\343}\242\274Vk\264<nL\304\274ZDP\275\353\262\244\274?\007\333=n\247\317=\023Y(\275V|\302<\232\'\216=\'\222\025=:D\025\276\007\034)\274\206d7\274[\224\241=\361$\276\275N\276\322\275&\036\313\275\225\025n\275\352\265\000\275\273\323\331=\260ee\274\265\256\251\275\345k\003<$8\235<\030u\026\275\340\373\242=\016\2070\275>#\366\275\021\337\263=}\244\236\275\334\014\275<\3579G:\352\312\\\275z\217\217=\373\206\261\275\206\227\356\274h\344\273=\027\244\275<\2309\013\274\207\200\341=(\352\270\275\250\274,=[T\274=\234\226C\275>\023f\275}\320\237=\376#\224<\370\203\r=&<I\276\271.\337<8L\025:\236\2579\274\233,\350;I\241\002=&T\021<\340\373\230\275\241\002\212=\351\256$\275\325\203<>0\314\220\275\347\274b=\301J1\272\362\213\333<\252k\217\274\331\240\037\276\250z\000=\023\206N\275\277l`\276\343\024\324\275FP\035>\\\300\r\275\257\325\026=u\342\231\273\237\3143=\376\226\007=Z\231\361\2757\374\350\275\337\352\016\273H\262\001=Y\271\336\274\177%\313\275\346\302\315=\244\030\r\276_\343\213>I\r\223\275W\216\023\276\351\225\374:\002\325\360\275`\205\252\275\331\262\243=\023\257g=\013\356\226\275\377\357\371\275\262C\270\275\243\205\261\275b\342\372\275\301t\215=WW\215\274(\351m=\341\034\236;\320\234\307\275f\232\266\275\203\336\211\274\351\036\201:\007s\200=\234\340\250=L\203\311\274\271Y\322\275\021\313\016=\n\367\342=\355\313\212\273\325\001\213<M\271#\274\177\265\004=k\332\024:\200\237w=\020\234\204=\251\311\325\274\264\235N<\333\227\254\275R\326\n;\250|\261\275\267\272\373<\340\307:<\341\303(\273\365\312\322=:O\301\275DB>=_\265_\271\257B\006>\253\357\377<:\n\007\274\324\001\311\275\336O\346=X=\335<\377C\250<\222\330\224=C\375\373\273>\347#>-\250\013\276\346lE\275\004\217(\275\325!\333\275r\262\002=\232Hb\275\313\231\024\273\000u%>\n\343\023\276I\324l\275g\033F\275\237\323\213=\327x\001>\201=\014=\254\332\231\275w`\302\274\324\360\212\275_\275\373\274p\263\021\276\037+\001\276\025\256\223=\003w\010\274k\245\326\274W\231d=\213\327\252=\276\364c=\222yV>\322JO\275]\2444\274\345 \363\2733\241\003>\206g\341\275\214\005\025\275G.\000\276]\"s=\022c\"\276\372\221\232\275\007.\220\274Me%=\202\346\305\275\267i\312\275\364\036K\274\311!\231\275|\330\260\274/\006\246\274J\264\333=\261u.<\332\217\340\275o\354k=\033\353B<\277O6<\213\270\177=E@\240=\027\'\301=kN \276\367\"e\274z^\214\275<#\344=\201\355\000\274\327\226f=\351\272\270<\223\341\303\275\267c\230\273.\376\035<\314m\027\274\307\236\373\275\314x\002=?\322c\275\364l->y\241\337=\314\006\262;\001(\023=i\013\037\274 \242\237:]\212\030\275\333\031\256=\0348^\275*\373\226\275\351\"-\275{j9\275\020\341R=F_V\275bS\025\2745d\275\274\\\330E<\033\',\274\030D\032\275\034i\234\274\227/\203=\211\354\036>\227\316\235=\213\025\320=t\255\305\275\021\177(\273\315@\030\275Q\221\204\275\351a\027=:R\030\276\021f\353<\027\364\361\272\214g\353<\246S\336\275\'S\263\274\323\0237\275\217\245\335\275\312\000\341=\023\345\013\276-\341\">\3158\010\275\326o\t=_\304\301=\n\356i<\326\213\275=a\317\037\276\220\213\374;x(\205;\"\221\022\276\301\305\014\276k\210\006<\275*\341\275\032\226\335<\3631\244<\'\316\223=KX\303<!{\356<\202\020\035>\277\235\235<\273\002\025\275\254\033\316\272\220\351\366\275\243A\316\275M\230\311<\323\242U\275\203\331L=0\031\264=\333u\230\275F\230\306\273|\0106\275\300\346\364=\240m\026>\333U\371\274l\303i\275\245\371/>\374\307 \274F\216\003>3p\276\275\252i\'\275\377\374\231<\232\027\260\275ca\007\275Y\247\324\275\360\277\200\274\354\250\213<b?\230=@\247a\275\216\301\r\275\202k\003\276\213.\207=\366\033\021>\245\204\374<Ec\315=\242o\315=\212L\024\275\nF\250\274v2\265\273\351T\261\275.\306\201=\206;\216=\234\336\314\274\334\375s=\305\377]=\017\345\210\275\021\217Y=\347@\014>s\231\213\275P\201\004;\275g\341<\377\272\351\275\014\273\037\274}\024\033\276\300\357\307=\207\324@\2759\256\263\275\336\343>\276\237\364\020=\374y\031\275 9\222\275\364\014\361\274\240B\005\276`\206\367=\264\214`>/\000\214\275\256!\022<\363\301\261\274r\2571<\020\000\206\275\r\275\323<\314\213\370\275Pl~\274S}\257;\215w\272<i\3232\276\340\305\317\274\254\006\013\274\210\241>\275\332(\350\275<p\335=\020\'\206=@{,\276d\233\n\275\303\264\232\274\"\004\376\275/T\203\275x\241d\274<\342\300=u\202\031\275\314\3613>\343\235c;~\205i=K\314K\276u\337\311<\360`\320\275R\333\\\275\227.-\275\342\361\254<\303\237s=\343\023\033\276\300d\250\273 B\000\276\3674K\275\030\271\212=e\350\230\275R\243\272=\310%\315<\361\221\220\274\203&\223\274~\321\205<%\030\213\275V\020\017=\005\275\302\273\264\316M\275\323\306\357=Z^\001<\321\273\224=\351\247\004=~\n\t\276\303\310\200\274\0053e\274\257h\367<\002\302\303<\025\242\324\275^\351\024<\0032d=j&\273\273\342I\355\274\364\265g<\023W\235;\303mG\274\253kU<\327\272^=\336\201p=+q\023=j\345w=[\233\236=\377\026\"\275\236/\312\274\027\231\254;G4\224\272\233\207(=\00059\274\371o\373=\261d\367\274ML!>Mg\331\275\267\200\367=k\\t=\026\210\035\276{\314]\276\304\003\227<\305is=\335\344\245\273iF\326\274\375\275\003=QBt\275\275\"\231:)\343\212=\277<6=\003\023\221\275\310\253\371;\026\353R\274\264\362\211\273\270\315\273\275\256\334\t=\014\346[\275E \t\275 \206\242\275\354->\276j\366\300=\256\013\013\276=;\214;\255\376\373;\201\224\026=2Q\031\276\315S\254=\364\346\354<\335\0340\274\330A_\276\253\265\204<\2325[\275\367\264\220=\311\355\351;\241\270 \275\377_U\275\246D\n=\2553\371\274\376\263\332=\234\016\217\275\201J\345=f\027X\275y\225\375\274\023&3\275\245<\360<i\363\201\275I\324\007\274\023vj\275=\241>=\3203\024\276\333\273\342\275\010N\227=\257\177:=![\037\275@\357\247\275\276\017\220<\1772\035=\357\226\261=\304\022\332\274\227\\\256<\006\224\226\2756>h<n^\315\275\220\341u\275YL\021\276\326\3045\275\213\351\322<6\355\036:\341@>=T\302\266;\300\300\343<\375qB\275\032C\220\274R\271\270=\376k ;ig\373\274T\\H\273(Y\206<C \253=\266\253\266=ng\255=G\317\235=\274\013\237\275V\355\005\275/\257\301<\323/\216\272\224$ =\316\215\312\274a\017\347\274\322GF=\300\236\263\275\233\327\314=\303c\024\274 \307\235\275\337\026{=\024\363\027\275\226\2249<\377\327#\275?\325\317<\213\014\031\275^\204\203\275\336\370%<\3650\276=fH\304<`\210!>\026\314\330=\265\346\340<V\373\251=\024{]=C\362\013\275Z\327\215\274V-#>\321X\330\275^\254\251=o\202\232\2751I\341<P\252_\275\3223f=\250\370\237\275\004\007\250\275x\'\263\275\r/\371<7w\207:{\004\347\274\242\'\361=u\230\t=j\2329>\313\363\010\276\207x\317:\025\020\342\2747\231\224<\346\354\006\276\366c\031=\004vj\274\326\335\377;\203\317@>ML\026>\024%\333=\367!\252\275|\262o=\375\325\245\274\233\035&\273XWc\274-\246\213=~\030z\274g\342\315\275L5 \2757\223\301\275\322\177\222\275j\257j:\360\237\244=\252\217\212=\272\365{\275c\357\032\275c\t\323\275\3657\335;]\227\336\273\263\330\272\275\227?\'>\305L\377\273\357\206\232\275\231\020\307\275\202\350\031>6pZ=\253\025\264\275\360\331,\274\2073\334\274\332\322\002\276H\226\361\274\t\206\336=\324\305#\275\025\346\302=y,2\275U\225n\275 q\023\275\354v]=WO\336=\211\376\242;\202\237\322=\366$N=1A\367;\241\252\031\272Wzj=\227+\353=i\3644\275\304U\002\276\347\026\013\274?.\272=;\020\177\275\3708\016>\330j\257=\203\365(>\034.\337=\005n\345\274\345\237l=\376\247\225\275=\023\212\272O\321\004\276I\364\000>\365\243D\275\263\321\255=\232\370\006\276KN\224=\'\346\340=\242E\241=\213`\004>I\340\206\275\266[\317=\323\264A\275\317\'\'<\243\014m\274\371v2\276<\377H>v\235x\275|\263\325=\203\n\335\275*\276\311<\030z\377:\220\320#\275\247/\335\275\023\321\237=<\344\020<\214\240\307\275\233\356\264=T\002=\274H\356?=\222\206\222=B9\207=\026[\202<v\203%\276\t\263\277\275\002\321\374;\307po\273\241\034\242=\332N\265\275\t\215\225\275\223\250J=\254\334R\275\277P\376=%\024\237\274[\213\001>\363D\241\275_0\375\275\001\3550=\337\341T=E\341?\275\321\021\210\275\215\302\233=\265cI=\230V <n]\240\275K\212\251<\03164\275\250\310\213=\\7&\275\315\rA\2756f\005\276f&L\276;\025T\275\257\327\246\275.\254A\275\347\007\024>\212x\013\276\031\276(<j0\237=\331\274\026\275\374\002-\275\022[\000\276\245>\007=\234\305\034\274\226\365\221=\276\202Z\275vW\216\275\200S\200=\016\310R\274R\270_=\277\241\003\275\234C\221\274Qx\254=\361x\243<WTa\275\200\354\263\274\270\302\225\275O\235\277\275\310\255\026\275\002\020\305<\304\235\315\271\316\201\215<\224\274\247\275>+\276=\237\351;\275\252{P<D\260\254\275\311\035*>\'\\\354=o\302\007\276\371\376\256=9\225.\275)\344\035\276&\213\014\275n\264\236=\374\252\371<Xc\325\274\006\013F;\006\n\250\275\326\231\300=E\313\210<N\272\366\275\'\373\322\273:H\206\275\024\347\000>\026\213\267=^\263\230\274.\203\321=\37440\276\340Q\027\276|\312*\275\010\014\246\273\230U\237=\331:2>\373\254\301\275L\267\266=\272\326\300\274\303\215\242\275fwX=C\310S\275\301n\253\275rX\244\275\364*\227=Z\036/\276\343n\"\274\254.#\276\351\216\312=%\253]\275\021\330\305\275<\274&>\363\017G\275yL\277\273\006Bm\275\323\270\221\274\263Bp=\036\002\361<\257\2375=\350%\373\274w\035\201=[\000D:\347x\006\275\353}\3749WQ\266<<\221X\275\242>\347=5|y=b^&\274\315n\232=\306`%>\3003\224\274\370\207 \275\251\r\260=\370\005+\276\337\013\264<R\326<\275\313\010\313=\2401\t>\275\267\036;\220\270\021\276\222\361\322=\264\\\312\273R\211\245=o\251\207<\352<\244\274\026\246\034\275c\244\"=\231\010\245\275_\342{\2751;\213=\207\0078=\225\324\223<p\3170=<\203B\274\270yf\275\340\347N="
      }
    }
  }
}
node {
  name: "bidirectional_1/forward_lstm_1/recurrent_kernel"
  op: "VariableV2"
  attr {
    key: "container"
    value {
      s: ""
    }
  }
  attr {
    key: "dtype"
    value {
      type: DT_FLOAT
    }
  }
  attr {
    key: "shape"
    value {
      shape {
        dim {
          size: 40
        }
        dim {
          size: 160
        }
      }
    }
  }
  attr {
    key: "shared_name"
    value {
      s: ""
    }
  }
}
node {
  name: "bidirectional_1/forward_lstm_1/recurrent_kernel/Assign"
  op: "Assign"
  input: "bidirectional_1/forward_lstm_1/recurrent_kernel"
  input: "bidirectional_1/forward_lstm_1/recurrent_kernel/initial_value"
  attr {
    key: "T"
    value {
      type: DT_FLOAT
    }
  }
  attr {
    key: "_class"
    value {
      list {
        s: "loc:@bidirectional_1/forward_lstm_1/recurrent_kernel"
      }
    }
  }
  attr {
    key: "use_locking"
    value {
      b: true
    }
  }
  attr {
    key: "validate_shape"
    value {
      b: true
    }
  }
}
node {
  name: "bidirectional_1/forward_lstm_1/recurrent_kernel/read"
  op: "Identity"
  input: "bidirectional_1/forward_lstm_1/recurrent_kernel"
  attr {
    key: "T"
    value {
      type: DT_FLOAT
    }
  }
  attr {
    key: "_class"
    value {
      list {
        s: "loc:@bidirectional_1/forward_lstm_1/recurrent_kernel"
      }
    }
  }
}
node {
  name: "bidirectional_1/forward_lstm_1/Const"
  op: "Const"
  attr {
    key: "dtype"
    value {
      type: DT_FLOAT
    }
  }
  attr {
    key: "value"
    value {
      tensor {
        dtype: DT_FLOAT
        tensor_shape {
          dim {
            size: 40
          }
        }
        float_val: 0.0
      }
    }
  }
}
node {
  name: "bidirectional_1/forward_lstm_1/Const_1"
  op: "Const"
  attr {
    key: "dtype"
    value {
      type: DT_FLOAT
    }
  }
  attr {
    key: "value"
    value {
      tensor {
        dtype: DT_FLOAT
        tensor_shape {
          dim {
            size: 40
          }
        }
        float_val: 1.0
      }
    }
  }
}
node {
  name: "bidirectional_1/forward_lstm_1/Const_2"
  op: "Const"
  attr {
    key: "dtype"
    value {
      type: DT_FLOAT
    }
  }
  attr {
    key: "value"
    value {
      tensor {
        dtype: DT_FLOAT
        tensor_shape {
          dim {
            size: 80
          }
        }
        float_val: 0.0
      }
    }
  }
}
node {
  name: "bidirectional_1/forward_lstm_1/concat/axis"
  op: "Const"
  attr {
    key: "dtype"
    value {
      type: DT_INT32
    }
  }
  attr {
    key: "value"
    value {
      tensor {
        dtype: DT_INT32
        tensor_shape {
        }
        int_val: 0
      }
    }
  }
}
node {
  name: "bidirectional_1/forward_lstm_1/concat"
  op: "ConcatV2"
  input: "bidirectional_1/forward_lstm_1/Const"
  input: "bidirectional_1/forward_lstm_1/Const_1"
  input: "bidirectional_1/forward_lstm_1/Const_2"
  input: "bidirectional_1/forward_lstm_1/concat/axis"
  attr {
    key: "N"
    value {
      i: 3
    }
  }
  attr {
    key: "T"
    value {
      type: DT_FLOAT
    }
  }
  attr {
    key: "Tidx"
    value {
      type: DT_INT32
    }
  }
}
node {
  name: "bidirectional_1/forward_lstm_1/bias"
  op: "VariableV2"
  attr {
    key: "container"
    value {
      s: ""
    }
  }
  attr {
    key: "dtype"
    value {
      type: DT_FLOAT
    }
  }
  attr {
    key: "shape"
    value {
      shape {
        dim {
          size: 160
        }
      }
    }
  }
  attr {
    key: "shared_name"
    value {
      s: ""
    }
  }
}
node {
  name: "bidirectional_1/forward_lstm_1/bias/Assign"
  op: "Assign"
  input: "bidirectional_1/forward_lstm_1/bias"
  input: "bidirectional_1/forward_lstm_1/concat"
  attr {
    key: "T"
    value {
      type: DT_FLOAT
    }
  }
  attr {
    key: "_class"
    value {
      list {
        s: "loc:@bidirectional_1/forward_lstm_1/bias"
      }
    }
  }
  attr {
    key: "use_locking"
    value {
      b: true
    }
  }
  attr {
    key: "validate_shape"
    value {
      b: true
    }
  }
}
node {
  name: "bidirectional_1/forward_lstm_1/bias/read"
  op: "Identity"
  input: "bidirectional_1/forward_lstm_1/bias"
  attr {
    key: "T"
    value {
      type: DT_FLOAT
    }
  }
  attr {
    key: "_class"
    value {
      list {
        s: "loc:@bidirectional_1/forward_lstm_1/bias"
      }
    }
  }
}
node {
  name: "bidirectional_1/forward_lstm_1/strided_slice/stack"
  op: "Const"
  attr {
    key: "dtype"
    value {
      type: DT_INT32
    }
  }
  attr {
    key: "value"
    value {
      tensor {
        dtype: DT_INT32
        tensor_shape {
          dim {
            size: 2
          }
        }
        tensor_content: "\000\000\000\000\000\000\000\000"
      }
    }
  }
}
node {
  name: "bidirectional_1/forward_lstm_1/strided_slice/stack_1"
  op: "Const"
  attr {
    key: "dtype"
    value {
      type: DT_INT32
    }
  }
  attr {
    key: "value"
    value {
      tensor {
        dtype: DT_INT32
        tensor_shape {
          dim {
            size: 2
          }
        }
        tensor_content: "\000\000\000\000(\000\000\000"
      }
    }
  }
}
node {
  name: "bidirectional_1/forward_lstm_1/strided_slice/stack_2"
  op: "Const"
  attr {
    key: "dtype"
    value {
      type: DT_INT32
    }
  }
  attr {
    key: "value"
    value {
      tensor {
        dtype: DT_INT32
        tensor_shape {
          dim {
            size: 2
          }
        }
        tensor_content: "\001\000\000\000\001\000\000\000"
      }
    }
  }
}
node {
  name: "bidirectional_1/forward_lstm_1/strided_slice"
  op: "StridedSlice"
  input: "bidirectional_1/forward_lstm_1/kernel/read"
  input: "bidirectional_1/forward_lstm_1/strided_slice/stack"
  input: "bidirectional_1/forward_lstm_1/strided_slice/stack_1"
  input: "bidirectional_1/forward_lstm_1/strided_slice/stack_2"
  attr {
    key: "Index"
    value {
      type: DT_INT32
    }
  }
  attr {
    key: "T"
    value {
      type: DT_FLOAT
    }
  }
  attr {
    key: "begin_mask"
    value {
      i: 3
    }
  }
  attr {
    key: "ellipsis_mask"
    value {
      i: 0
    }
  }
  attr {
    key: "end_mask"
    value {
      i: 1
    }
  }
  attr {
    key: "new_axis_mask"
    value {
      i: 0
    }
  }
  attr {
    key: "shrink_axis_mask"
    value {
      i: 0
    }
  }
}
node {
  name: "bidirectional_1/forward_lstm_1/strided_slice_1/stack"
  op: "Const"
  attr {
    key: "dtype"
    value {
      type: DT_INT32
    }
  }
  attr {
    key: "value"
    value {
      tensor {
        dtype: DT_INT32
        tensor_shape {
          dim {
            size: 2
          }
        }
        tensor_content: "\000\000\000\000(\000\000\000"
      }
    }
  }
}
node {
  name: "bidirectional_1/forward_lstm_1/strided_slice_1/stack_1"
  op: "Const"
  attr {
    key: "dtype"
    value {
      type: DT_INT32
    }
  }
  attr {
    key: "value"
    value {
      tensor {
        dtype: DT_INT32
        tensor_shape {
          dim {
            size: 2
          }
        }
        tensor_content: "\000\000\000\000P\000\000\000"
      }
    }
  }
}
node {
  name: "bidirectional_1/forward_lstm_1/strided_slice_1/stack_2"
  op: "Const"
  attr {
    key: "dtype"
    value {
      type: DT_INT32
    }
  }
  attr {
    key: "value"
    value {
      tensor {
        dtype: DT_INT32
        tensor_shape {
          dim {
            size: 2
          }
        }
        tensor_content: "\001\000\000\000\001\000\000\000"
      }
    }
  }
}
node {
  name: "bidirectional_1/forward_lstm_1/strided_slice_1"
  op: "StridedSlice"
  input: "bidirectional_1/forward_lstm_1/kernel/read"
  input: "bidirectional_1/forward_lstm_1/strided_slice_1/stack"
  input: "bidirectional_1/forward_lstm_1/strided_slice_1/stack_1"
  input: "bidirectional_1/forward_lstm_1/strided_slice_1/stack_2"
  attr {
    key: "Index"
    value {
      type: DT_INT32
    }
  }
  attr {
    key: "T"
    value {
      type: DT_FLOAT
    }
  }
  attr {
    key: "begin_mask"
    value {
      i: 1
    }
  }
  attr {
    key: "ellipsis_mask"
    value {
      i: 0
    }
  }
  attr {
    key: "end_mask"
    value {
      i: 1
    }
  }
  attr {
    key: "new_axis_mask"
    value {
      i: 0
    }
  }
  attr {
    key: "shrink_axis_mask"
    value {
      i: 0
    }
  }
}
node {
  name: "bidirectional_1/forward_lstm_1/strided_slice_2/stack"
  op: "Const"
  attr {
    key: "dtype"
    value {
      type: DT_INT32
    }
  }
  attr {
    key: "value"
    value {
      tensor {
        dtype: DT_INT32
        tensor_shape {
          dim {
            size: 2
          }
        }
        tensor_content: "\000\000\000\000P\000\000\000"
      }
    }
  }
}
node {
  name: "bidirectional_1/forward_lstm_1/strided_slice_2/stack_1"
  op: "Const"
  attr {
    key: "dtype"
    value {
      type: DT_INT32
    }
  }
  attr {
    key: "value"
    value {
      tensor {
        dtype: DT_INT32
        tensor_shape {
          dim {
            size: 2
          }
        }
        tensor_content: "\000\000\000\000x\000\000\000"
      }
    }
  }
}
node {
  name: "bidirectional_1/forward_lstm_1/strided_slice_2/stack_2"
  op: "Const"
  attr {
    key: "dtype"
    value {
      type: DT_INT32
    }
  }
  attr {
    key: "value"
    value {
      tensor {
        dtype: DT_INT32
        tensor_shape {
          dim {
            size: 2
          }
        }
        tensor_content: "\001\000\000\000\001\000\000\000"
      }
    }
  }
}
node {
  name: "bidirectional_1/forward_lstm_1/strided_slice_2"
  op: "StridedSlice"
  input: "bidirectional_1/forward_lstm_1/kernel/read"
  input: "bidirectional_1/forward_lstm_1/strided_slice_2/stack"
  input: "bidirectional_1/forward_lstm_1/strided_slice_2/stack_1"
  input: "bidirectional_1/forward_lstm_1/strided_slice_2/stack_2"
  attr {
    key: "Index"
    value {
      type: DT_INT32
    }
  }
  attr {
    key: "T"
    value {
      type: DT_FLOAT
    }
  }
  attr {
    key: "begin_mask"
    value {
      i: 1
    }
  }
  attr {
    key: "ellipsis_mask"
    value {
      i: 0
    }
  }
  attr {
    key: "end_mask"
    value {
      i: 1
    }
  }
  attr {
    key: "new_axis_mask"
    value {
      i: 0
    }
  }
  attr {
    key: "shrink_axis_mask"
    value {
      i: 0
    }
  }
}
node {
  name: "bidirectional_1/forward_lstm_1/strided_slice_3/stack"
  op: "Const"
  attr {
    key: "dtype"
    value {
      type: DT_INT32
    }
  }
  attr {
    key: "value"
    value {
      tensor {
        dtype: DT_INT32
        tensor_shape {
          dim {
            size: 2
          }
        }
        tensor_content: "\000\000\000\000x\000\000\000"
      }
    }
  }
}
node {
  name: "bidirectional_1/forward_lstm_1/strided_slice_3/stack_1"
  op: "Const"
  attr {
    key: "dtype"
    value {
      type: DT_INT32
    }
  }
  attr {
    key: "value"
    value {
      tensor {
        dtype: DT_INT32
        tensor_shape {
          dim {
            size: 2
          }
        }
        tensor_content: "\000\000\000\000\000\000\000\000"
      }
    }
  }
}
node {
  name: "bidirectional_1/forward_lstm_1/strided_slice_3/stack_2"
  op: "Const"
  attr {
    key: "dtype"
    value {
      type: DT_INT32
    }
  }
  attr {
    key: "value"
    value {
      tensor {
        dtype: DT_INT32
        tensor_shape {
          dim {
            size: 2
          }
        }
        tensor_content: "\001\000\000\000\001\000\000\000"
      }
    }
  }
}
node {
  name: "bidirectional_1/forward_lstm_1/strided_slice_3"
  op: "StridedSlice"
  input: "bidirectional_1/forward_lstm_1/kernel/read"
  input: "bidirectional_1/forward_lstm_1/strided_slice_3/stack"
  input: "bidirectional_1/forward_lstm_1/strided_slice_3/stack_1"
  input: "bidirectional_1/forward_lstm_1/strided_slice_3/stack_2"
  attr {
    key: "Index"
    value {
      type: DT_INT32
    }
  }
  attr {
    key: "T"
    value {
      type: DT_FLOAT
    }
  }
  attr {
    key: "begin_mask"
    value {
      i: 1
    }
  }
  attr {
    key: "ellipsis_mask"
    value {
      i: 0
    }
  }
  attr {
    key: "end_mask"
    value {
      i: 3
    }
  }
  attr {
    key: "new_axis_mask"
    value {
      i: 0
    }
  }
  attr {
    key: "shrink_axis_mask"
    value {
      i: 0
    }
  }
}
node {
  name: "bidirectional_1/forward_lstm_1/strided_slice_4/stack"
  op: "Const"
  attr {
    key: "dtype"
    value {
      type: DT_INT32
    }
  }
  attr {
    key: "value"
    value {
      tensor {
        dtype: DT_INT32
        tensor_shape {
          dim {
            size: 2
          }
        }
        tensor_content: "\000\000\000\000\000\000\000\000"
      }
    }
  }
}
node {
  name: "bidirectional_1/forward_lstm_1/strided_slice_4/stack_1"
  op: "Const"
  attr {
    key: "dtype"
    value {
      type: DT_INT32
    }
  }
  attr {
    key: "value"
    value {
      tensor {
        dtype: DT_INT32
        tensor_shape {
          dim {
            size: 2
          }
        }
        tensor_content: "\000\000\000\000(\000\000\000"
      }
    }
  }
}
node {
  name: "bidirectional_1/forward_lstm_1/strided_slice_4/stack_2"
  op: "Const"
  attr {
    key: "dtype"
    value {
      type: DT_INT32
    }
  }
  attr {
    key: "value"
    value {
      tensor {
        dtype: DT_INT32
        tensor_shape {
          dim {
            size: 2
          }
        }
        tensor_content: "\001\000\000\000\001\000\000\000"
      }
    }
  }
}
node {
  name: "bidirectional_1/forward_lstm_1/strided_slice_4"
  op: "StridedSlice"
  input: "bidirectional_1/forward_lstm_1/recurrent_kernel/read"
  input: "bidirectional_1/forward_lstm_1/strided_slice_4/stack"
  input: "bidirectional_1/forward_lstm_1/strided_slice_4/stack_1"
  input: "bidirectional_1/forward_lstm_1/strided_slice_4/stack_2"
  attr {
    key: "Index"
    value {
      type: DT_INT32
    }
  }
  attr {
    key: "T"
    value {
      type: DT_FLOAT
    }
  }
  attr {
    key: "begin_mask"
    value {
      i: 3
    }
  }
  attr {
    key: "ellipsis_mask"
    value {
      i: 0
    }
  }
  attr {
    key: "end_mask"
    value {
      i: 1
    }
  }
  attr {
    key: "new_axis_mask"
    value {
      i: 0
    }
  }
  attr {
    key: "shrink_axis_mask"
    value {
      i: 0
    }
  }
}
node {
  name: "bidirectional_1/forward_lstm_1/strided_slice_5/stack"
  op: "Const"
  attr {
    key: "dtype"
    value {
      type: DT_INT32
    }
  }
  attr {
    key: "value"
    value {
      tensor {
        dtype: DT_INT32
        tensor_shape {
          dim {
            size: 2
          }
        }
        tensor_content: "\000\000\000\000(\000\000\000"
      }
    }
  }
}
node {
  name: "bidirectional_1/forward_lstm_1/strided_slice_5/stack_1"
  op: "Const"
  attr {
    key: "dtype"
    value {
      type: DT_INT32
    }
  }
  attr {
    key: "value"
    value {
      tensor {
        dtype: DT_INT32
        tensor_shape {
          dim {
            size: 2
          }
        }
        tensor_content: "\000\000\000\000P\000\000\000"
      }
    }
  }
}
node {
  name: "bidirectional_1/forward_lstm_1/strided_slice_5/stack_2"
  op: "Const"
  attr {
    key: "dtype"
    value {
      type: DT_INT32
    }
  }
  attr {
    key: "value"
    value {
      tensor {
        dtype: DT_INT32
        tensor_shape {
          dim {
            size: 2
          }
        }
        tensor_content: "\001\000\000\000\001\000\000\000"
      }
    }
  }
}
node {
  name: "bidirectional_1/forward_lstm_1/strided_slice_5"
  op: "StridedSlice"
  input: "bidirectional_1/forward_lstm_1/recurrent_kernel/read"
  input: "bidirectional_1/forward_lstm_1/strided_slice_5/stack"
  input: "bidirectional_1/forward_lstm_1/strided_slice_5/stack_1"
  input: "bidirectional_1/forward_lstm_1/strided_slice_5/stack_2"
  attr {
    key: "Index"
    value {
      type: DT_INT32
    }
  }
  attr {
    key: "T"
    value {
      type: DT_FLOAT
    }
  }
  attr {
    key: "begin_mask"
    value {
      i: 1
    }
  }
  attr {
    key: "ellipsis_mask"
    value {
      i: 0
    }
  }
  attr {
    key: "end_mask"
    value {
      i: 1
    }
  }
  attr {
    key: "new_axis_mask"
    value {
      i: 0
    }
  }
  attr {
    key: "shrink_axis_mask"
    value {
      i: 0
    }
  }
}
node {
  name: "bidirectional_1/forward_lstm_1/strided_slice_6/stack"
  op: "Const"
  attr {
    key: "dtype"
    value {
      type: DT_INT32
    }
  }
  attr {
    key: "value"
    value {
      tensor {
        dtype: DT_INT32
        tensor_shape {
          dim {
            size: 2
          }
        }
        tensor_content: "\000\000\000\000P\000\000\000"
      }
    }
  }
}
node {
  name: "bidirectional_1/forward_lstm_1/strided_slice_6/stack_1"
  op: "Const"
  attr {
    key: "dtype"
    value {
      type: DT_INT32
    }
  }
  attr {
    key: "value"
    value {
      tensor {
        dtype: DT_INT32
        tensor_shape {
          dim {
            size: 2
          }
        }
        tensor_content: "\000\000\000\000x\000\000\000"
      }
    }
  }
}
node {
  name: "bidirectional_1/forward_lstm_1/strided_slice_6/stack_2"
  op: "Const"
  attr {
    key: "dtype"
    value {
      type: DT_INT32
    }
  }
  attr {
    key: "value"
    value {
      tensor {
        dtype: DT_INT32
        tensor_shape {
          dim {
            size: 2
          }
        }
        tensor_content: "\001\000\000\000\001\000\000\000"
      }
    }
  }
}
node {
  name: "bidirectional_1/forward_lstm_1/strided_slice_6"
  op: "StridedSlice"
  input: "bidirectional_1/forward_lstm_1/recurrent_kernel/read"
  input: "bidirectional_1/forward_lstm_1/strided_slice_6/stack"
  input: "bidirectional_1/forward_lstm_1/strided_slice_6/stack_1"
  input: "bidirectional_1/forward_lstm_1/strided_slice_6/stack_2"
  attr {
    key: "Index"
    value {
      type: DT_INT32
    }
  }
  attr {
    key: "T"
    value {
      type: DT_FLOAT
    }
  }
  attr {
    key: "begin_mask"
    value {
      i: 1
    }
  }
  attr {
    key: "ellipsis_mask"
    value {
      i: 0
    }
  }
  attr {
    key: "end_mask"
    value {
      i: 1
    }
  }
  attr {
    key: "new_axis_mask"
    value {
      i: 0
    }
  }
  attr {
    key: "shrink_axis_mask"
    value {
      i: 0
    }
  }
}
node {
  name: "bidirectional_1/forward_lstm_1/strided_slice_7/stack"
  op: "Const"
  attr {
    key: "dtype"
    value {
      type: DT_INT32
    }
  }
  attr {
    key: "value"
    value {
      tensor {
        dtype: DT_INT32
        tensor_shape {
          dim {
            size: 2
          }
        }
        tensor_content: "\000\000\000\000x\000\000\000"
      }
    }
  }
}
node {
  name: "bidirectional_1/forward_lstm_1/strided_slice_7/stack_1"
  op: "Const"
  attr {
    key: "dtype"
    value {
      type: DT_INT32
    }
  }
  attr {
    key: "value"
    value {
      tensor {
        dtype: DT_INT32
        tensor_shape {
          dim {
            size: 2
          }
        }
        tensor_content: "\000\000\000\000\000\000\000\000"
      }
    }
  }
}
node {
  name: "bidirectional_1/forward_lstm_1/strided_slice_7/stack_2"
  op: "Const"
  attr {
    key: "dtype"
    value {
      type: DT_INT32
    }
  }
  attr {
    key: "value"
    value {
      tensor {
        dtype: DT_INT32
        tensor_shape {
          dim {
            size: 2
          }
        }
        tensor_content: "\001\000\000\000\001\000\000\000"
      }
    }
  }
}
node {
  name: "bidirectional_1/forward_lstm_1/strided_slice_7"
  op: "StridedSlice"
  input: "bidirectional_1/forward_lstm_1/recurrent_kernel/read"
  input: "bidirectional_1/forward_lstm_1/strided_slice_7/stack"
  input: "bidirectional_1/forward_lstm_1/strided_slice_7/stack_1"
  input: "bidirectional_1/forward_lstm_1/strided_slice_7/stack_2"
  attr {
    key: "Index"
    value {
      type: DT_INT32
    }
  }
  attr {
    key: "T"
    value {
      type: DT_FLOAT
    }
  }
  attr {
    key: "begin_mask"
    value {
      i: 1
    }
  }
  attr {
    key: "ellipsis_mask"
    value {
      i: 0
    }
  }
  attr {
    key: "end_mask"
    value {
      i: 3
    }
  }
  attr {
    key: "new_axis_mask"
    value {
      i: 0
    }
  }
  attr {
    key: "shrink_axis_mask"
    value {
      i: 0
    }
  }
}
node {
  name: "bidirectional_1/forward_lstm_1/strided_slice_8/stack"
  op: "Const"
  attr {
    key: "dtype"
    value {
      type: DT_INT32
    }
  }
  attr {
    key: "value"
    value {
      tensor {
        dtype: DT_INT32
        tensor_shape {
          dim {
            size: 1
          }
        }
        int_val: 0
      }
    }
  }
}
node {
  name: "bidirectional_1/forward_lstm_1/strided_slice_8/stack_1"
  op: "Const"
  attr {
    key: "dtype"
    value {
      type: DT_INT32
    }
  }
  attr {
    key: "value"
    value {
      tensor {
        dtype: DT_INT32
        tensor_shape {
          dim {
            size: 1
          }
        }
        int_val: 40
      }
    }
  }
}
node {
  name: "bidirectional_1/forward_lstm_1/strided_slice_8/stack_2"
  op: "Const"
  attr {
    key: "dtype"
    value {
      type: DT_INT32
    }
  }
  attr {
    key: "value"
    value {
      tensor {
        dtype: DT_INT32
        tensor_shape {
          dim {
            size: 1
          }
        }
        int_val: 1
      }
    }
  }
}
node {
  name: "bidirectional_1/forward_lstm_1/strided_slice_8"
  op: "StridedSlice"
  input: "bidirectional_1/forward_lstm_1/bias/read"
  input: "bidirectional_1/forward_lstm_1/strided_slice_8/stack"
  input: "bidirectional_1/forward_lstm_1/strided_slice_8/stack_1"
  input: "bidirectional_1/forward_lstm_1/strided_slice_8/stack_2"
  attr {
    key: "Index"
    value {
      type: DT_INT32
    }
  }
  attr {
    key: "T"
    value {
      type: DT_FLOAT
    }
  }
  attr {
    key: "begin_mask"
    value {
      i: 1
    }
  }
  attr {
    key: "ellipsis_mask"
    value {
      i: 0
    }
  }
  attr {
    key: "end_mask"
    value {
      i: 0
    }
  }
  attr {
    key: "new_axis_mask"
    value {
      i: 0
    }
  }
  attr {
    key: "shrink_axis_mask"
    value {
      i: 0
    }
  }
}
node {
  name: "bidirectional_1/forward_lstm_1/strided_slice_9/stack"
  op: "Const"
  attr {
    key: "dtype"
    value {
      type: DT_INT32
    }
  }
  attr {
    key: "value"
    value {
      tensor {
        dtype: DT_INT32
        tensor_shape {
          dim {
            size: 1
          }
        }
        int_val: 40
      }
    }
  }
}
node {
  name: "bidirectional_1/forward_lstm_1/strided_slice_9/stack_1"
  op: "Const"
  attr {
    key: "dtype"
    value {
      type: DT_INT32
    }
  }
  attr {
    key: "value"
    value {
      tensor {
        dtype: DT_INT32
        tensor_shape {
          dim {
            size: 1
          }
        }
        int_val: 80
      }
    }
  }
}
node {
  name: "bidirectional_1/forward_lstm_1/strided_slice_9/stack_2"
  op: "Const"
  attr {
    key: "dtype"
    value {
      type: DT_INT32
    }
  }
  attr {
    key: "value"
    value {
      tensor {
        dtype: DT_INT32
        tensor_shape {
          dim {
            size: 1
          }
        }
        int_val: 1
      }
    }
  }
}
node {
  name: "bidirectional_1/forward_lstm_1/strided_slice_9"
  op: "StridedSlice"
  input: "bidirectional_1/forward_lstm_1/bias/read"
  input: "bidirectional_1/forward_lstm_1/strided_slice_9/stack"
  input: "bidirectional_1/forward_lstm_1/strided_slice_9/stack_1"
  input: "bidirectional_1/forward_lstm_1/strided_slice_9/stack_2"
  attr {
    key: "Index"
    value {
      type: DT_INT32
    }
  }
  attr {
    key: "T"
    value {
      type: DT_FLOAT
    }
  }
  attr {
    key: "begin_mask"
    value {
      i: 0
    }
  }
  attr {
    key: "ellipsis_mask"
    value {
      i: 0
    }
  }
  attr {
    key: "end_mask"
    value {
      i: 0
    }
  }
